const unsigned char trained_tflite[] = {
  0x20, 0x00, 0x00, 0x00, 0x54, 0x46, 0x4c, 0x33, 0x00, 0x00, 0x00, 0x00,
  0x00, 0x00, 0x12, 0x00, 0x1c, 0x00, 0x18, 0x00, 0x14, 0x00, 0x10, 0x00,
  0x0c, 0x00, 0x08, 0x00, 0x00, 0x00, 0x04, 0x00, 0x12, 0x00, 0x00, 0x00,
  0x18, 0x00, 0x00, 0x00, 0x48, 0x00, 0x00, 0x00, 0x78, 0x33, 0x00, 0x00,
  0x88, 0x33, 0x00, 0x00, 0xf4, 0x78, 0x00, 0x00, 0x03, 0x00, 0x00, 0x00,
  0x01, 0x00, 0x00, 0x00, 0x0c, 0x00, 0x00, 0x00, 0x08, 0x00, 0x0c, 0x00,
  0x08, 0x00, 0x04, 0x00, 0x08, 0x00, 0x00, 0x00, 0x3b, 0x00, 0x00, 0x00,
  0x04, 0x00, 0x00, 0x00, 0x13, 0x00, 0x00, 0x00, 0x6d, 0x69, 0x6e, 0x5f,
  0x72, 0x75, 0x6e, 0x74, 0x69, 0x6d, 0x65, 0x5f, 0x76, 0x65, 0x72, 0x73,
  0x69, 0x6f, 0x6e, 0x00, 0x3c, 0x00, 0x00, 0x00, 0x2c, 0x33, 0x00, 0x00,
  0x24, 0x33, 0x00, 0x00, 0x0c, 0x33, 0x00, 0x00, 0xbc, 0x32, 0x00, 0x00,
  0x2c, 0x32, 0x00, 0x00, 0x9c, 0x31, 0x00, 0x00, 0x54, 0x31, 0x00, 0x00,
  0x04, 0x31, 0x00, 0x00, 0xb4, 0x30, 0x00, 0x00, 0x24, 0x30, 0x00, 0x00,
  0x94, 0x2f, 0x00, 0x00, 0x84, 0x2b, 0x00, 0x00, 0xb4, 0x29, 0x00, 0x00,
  0xd4, 0x26, 0x00, 0x00, 0xc4, 0x23, 0x00, 0x00, 0xb4, 0x20, 0x00, 0x00,
  0xa4, 0x1a, 0x00, 0x00, 0x94, 0x0e, 0x00, 0x00, 0x84, 0x02, 0x00, 0x00,
  0x64, 0x02, 0x00, 0x00, 0x44, 0x02, 0x00, 0x00, 0x24, 0x02, 0x00, 0x00,
  0x04, 0x02, 0x00, 0x00, 0xe4, 0x01, 0x00, 0x00, 0xc4, 0x01, 0x00, 0x00,
  0xa4, 0x01, 0x00, 0x00, 0x84, 0x01, 0x00, 0x00, 0x64, 0x01, 0x00, 0x00,
  0x44, 0x01, 0x00, 0x00, 0x24, 0x01, 0x00, 0x00, 0x04, 0x01, 0x00, 0x00,
  0xfc, 0x00, 0x00, 0x00, 0xf4, 0x00, 0x00, 0x00, 0xec, 0x00, 0x00, 0x00,
  0xe4, 0x00, 0x00, 0x00, 0xdc, 0x00, 0x00, 0x00, 0xd4, 0x00, 0x00, 0x00,
  0xcc, 0x00, 0x00, 0x00, 0xc4, 0x00, 0x00, 0x00, 0xbc, 0x00, 0x00, 0x00,
  0xb4, 0x00, 0x00, 0x00, 0xac, 0x00, 0x00, 0x00, 0xa4, 0x00, 0x00, 0x00,
  0x9c, 0x00, 0x00, 0x00, 0x94, 0x00, 0x00, 0x00, 0x8c, 0x00, 0x00, 0x00,
  0x84, 0x00, 0x00, 0x00, 0x7c, 0x00, 0x00, 0x00, 0x74, 0x00, 0x00, 0x00,
  0x6c, 0x00, 0x00, 0x00, 0x64, 0x00, 0x00, 0x00, 0x5c, 0x00, 0x00, 0x00,
  0x54, 0x00, 0x00, 0x00, 0x4c, 0x00, 0x00, 0x00, 0x44, 0x00, 0x00, 0x00,
  0x3c, 0x00, 0x00, 0x00, 0x34, 0x00, 0x00, 0x00, 0x2c, 0x00, 0x00, 0x00,
  0x24, 0x00, 0x00, 0x00, 0x04, 0x00, 0x00, 0x00, 0xe2, 0xcc, 0xff, 0xff,
  0x04, 0x00, 0x00, 0x00, 0x10, 0x00, 0x00, 0x00, 0x31, 0x2e, 0x35, 0x2e,
  0x30, 0x00, 0x00, 0x00, 0x00, 0x00, 0x00, 0x00, 0x00, 0x00, 0x00, 0x00,
  0x4c, 0x89, 0xff, 0xff, 0x50, 0x89, 0xff, 0xff, 0x54, 0x89, 0xff, 0xff,
  0x58, 0x89, 0xff, 0xff, 0x5c, 0x89, 0xff, 0xff, 0x60, 0x89, 0xff, 0xff,
  0x64, 0x89, 0xff, 0xff, 0x68, 0x89, 0xff, 0xff, 0x6c, 0x89, 0xff, 0xff,
  0x70, 0x89, 0xff, 0xff, 0x74, 0x89, 0xff, 0xff, 0x78, 0x89, 0xff, 0xff,
  0x7c, 0x89, 0xff, 0xff, 0x80, 0x89, 0xff, 0xff, 0x84, 0x89, 0xff, 0xff,
  0x88, 0x89, 0xff, 0xff, 0x8c, 0x89, 0xff, 0xff, 0x90, 0x89, 0xff, 0xff,
  0x94, 0x89, 0xff, 0xff, 0x98, 0x89, 0xff, 0xff, 0x9c, 0x89, 0xff, 0xff,
  0xa0, 0x89, 0xff, 0xff, 0xa4, 0x89, 0xff, 0xff, 0xa8, 0x89, 0xff, 0xff,
  0xac, 0x89, 0xff, 0xff, 0xb0, 0x89, 0xff, 0xff, 0xb4, 0x89, 0xff, 0xff,
  0xb8, 0x89, 0xff, 0xff, 0x6e, 0xcd, 0xff, 0xff, 0x04, 0x00, 0x00, 0x00,
  0x10, 0x00, 0x00, 0x00, 0x01, 0x00, 0x00, 0x00, 0x02, 0x00, 0x00, 0x00,
  0x01, 0x00, 0x00, 0x00, 0x20, 0x00, 0x00, 0x00, 0x8a, 0xcd, 0xff, 0xff,
  0x04, 0x00, 0x00, 0x00, 0x10, 0x00, 0x00, 0x00, 0x01, 0x00, 0x00, 0x00,
  0x01, 0x00, 0x00, 0x00, 0x02, 0x00, 0x00, 0x00, 0x20, 0x00, 0x00, 0x00,
  0xa6, 0xcd, 0xff, 0xff, 0x04, 0x00, 0x00, 0x00, 0x10, 0x00, 0x00, 0x00,
  0x01, 0x00, 0x00, 0x00, 0x04, 0x00, 0x00, 0x00, 0x01, 0x00, 0x00, 0x00,
  0x20, 0x00, 0x00, 0x00, 0xc2, 0xcd, 0xff, 0xff, 0x04, 0x00, 0x00, 0x00,
  0x10, 0x00, 0x00, 0x00, 0x01, 0x00, 0x00, 0x00, 0x01, 0x00, 0x00, 0x00,
  0x04, 0x00, 0x00, 0x00, 0x20, 0x00, 0x00, 0x00, 0xde, 0xcd, 0xff, 0xff,
  0x04, 0x00, 0x00, 0x00, 0x10, 0x00, 0x00, 0x00, 0x01, 0x00, 0x00, 0x00,
  0x07, 0x00, 0x00, 0x00, 0x01, 0x00, 0x00, 0x00, 0x20, 0x00, 0x00, 0x00,
  0xfa, 0xcd, 0xff, 0xff, 0x04, 0x00, 0x00, 0x00, 0x10, 0x00, 0x00, 0x00,
  0x01, 0x00, 0x00, 0x00, 0x01, 0x00, 0x00, 0x00, 0x07, 0x00, 0x00, 0x00,
  0x10, 0x00, 0x00, 0x00, 0x16, 0xce, 0xff, 0xff, 0x04, 0x00, 0x00, 0x00,
  0x10, 0x00, 0x00, 0x00, 0x01, 0x00, 0x00, 0x00, 0x0d, 0x00, 0x00, 0x00,
  0x01, 0x00, 0x00, 0x00, 0x10, 0x00, 0x00, 0x00, 0x32, 0xce, 0xff, 0xff,
  0x04, 0x00, 0x00, 0x00, 0x10, 0x00, 0x00, 0x00, 0x01, 0x00, 0x00, 0x00,
  0x01, 0x00, 0x00, 0x00, 0x0d, 0x00, 0x00, 0x00, 0x10, 0x00, 0x00, 0x00,
  0x4e, 0xce, 0xff, 0xff, 0x04, 0x00, 0x00, 0x00, 0x10, 0x00, 0x00, 0x00,
  0x01, 0x00, 0x00, 0x00, 0x19, 0x00, 0x00, 0x00, 0x01, 0x00, 0x00, 0x00,
  0x10, 0x00, 0x00, 0x00, 0x6a, 0xce, 0xff, 0xff, 0x04, 0x00, 0x00, 0x00,
  0x10, 0x00, 0x00, 0x00, 0x01, 0x00, 0x00, 0x00, 0x01, 0x00, 0x00, 0x00,
  0x19, 0x00, 0x00, 0x00, 0x10, 0x00, 0x00, 0x00, 0x86, 0xce, 0xff, 0xff,
  0x04, 0x00, 0x00, 0x00, 0x10, 0x00, 0x00, 0x00, 0x01, 0x00, 0x00, 0x00,
  0x31, 0x00, 0x00, 0x00, 0x01, 0x00, 0x00, 0x00, 0x10, 0x00, 0x00, 0x00,
  0xa2, 0xce, 0xff, 0xff, 0x04, 0x00, 0x00, 0x00, 0x10, 0x00, 0x00, 0x00,
  0x01, 0x00, 0x00, 0x00, 0x01, 0x00, 0x00, 0x00, 0x31, 0x00, 0x00, 0x00,
  0x0f, 0x00, 0x00, 0x00, 0xbe, 0xce, 0xff, 0xff, 0x04, 0x00, 0x00, 0x00,
  0x00, 0x0c, 0x00, 0x00, 0x27, 0x1b, 0xef, 0xf8, 0xba, 0xb5, 0xb0, 0x31,
  0xda, 0x02, 0xb5, 0x33, 0xe1, 0x0e, 0x04, 0x01, 0xea, 0xe0, 0xe4, 0x5b,
  0x22, 0x1a, 0xd6, 0xd2, 0xc2, 0xe3, 0xba, 0xe0, 0x24, 0x18, 0x17, 0xdc,
  0xb9, 0xfd, 0x11, 0xe9, 0xd6, 0xeb, 0xc5, 0x3f, 0x03, 0x11, 0xb0, 0x34,
  0xf2, 0x9d, 0xee, 0xcb, 0x06, 0x1e, 0xeb, 0xd9, 0x38, 0x04, 0x15, 0xd1,
  0xed, 0xcb, 0x2e, 0x89, 0xdc, 0xc1, 0xd3, 0xdf, 0x0c, 0x1b, 0xab, 0xd4,
  0x23, 0x8f, 0xff, 0xd0, 0xa9, 0xdb, 0xb5, 0xdf, 0xad, 0xe4, 0xe0, 0x19,
  0x0d, 0x1a, 0xc0, 0x12, 0x1b, 0xcf, 0xbc, 0xa6, 0xb8, 0x81, 0xc1, 0xb3,
  0xd5, 0xca, 0xb2, 0xd0, 0x47, 0xee, 0x11, 0x07, 0xca, 0xd5, 0x04, 0x04,
  0x13, 0x38, 0xc4, 0xb3, 0x2d, 0xd6, 0xc5, 0xce, 0x42, 0xc3, 0xbb, 0x09,
  0x1b, 0xf2, 0xd7, 0x19, 0x19, 0xfb, 0xfa, 0x81, 0xf3, 0xd1, 0x4f, 0x2a,
  0xef, 0x16, 0xc1, 0xa9, 0xcb, 0xd0, 0xb7, 0x4d, 0xda, 0xb6, 0xf4, 0x19,
  0xbc, 0xe8, 0x13, 0x10, 0x1d, 0x43, 0xc8, 0xcf, 0x0e, 0xed, 0x01, 0xf6,
  0x00, 0x2c, 0x00, 0x59, 0xff, 0xc6, 0xe9, 0xb3, 0xbc, 0xe2, 0xf6, 0xdf,
  0x03, 0xcb, 0xd3, 0x28, 0xe7, 0xbc, 0x01, 0x07, 0xdd, 0xda, 0x02, 0xe2,
  0xd6, 0x02, 0xfe, 0xef, 0xf1, 0xfc, 0xd2, 0xea, 0xc4, 0xf9, 0xda, 0xff,
  0x1a, 0xc7, 0xd2, 0xe6, 0xfe, 0x16, 0xce, 0xf7, 0xe5, 0xd6, 0xc9, 0xdc,
  0x1f, 0xdd, 0xe7, 0xfb, 0xbc, 0x0d, 0xfd, 0x1a, 0xf5, 0xe7, 0x0d, 0xee,
  0x15, 0x00, 0x2d, 0xcd, 0xb9, 0xd5, 0x0f, 0xd7, 0xe1, 0xe5, 0xe9, 0x10,
  0x81, 0x16, 0xcd, 0x1a, 0x25, 0x93, 0xfd, 0xd5, 0x0b, 0x8f, 0xc4, 0x2d,
  0x16, 0xbf, 0xf3, 0x0a, 0xbe, 0x2d, 0x66, 0xc8, 0xda, 0x14, 0xc9, 0xf2,
  0x89, 0x9d, 0xeb, 0xf8, 0xf4, 0xef, 0xdf, 0x0d, 0x1b, 0x03, 0xa9, 0xab,
  0x0b, 0x88, 0xe5, 0x14, 0xfb, 0xc2, 0xfb, 0x07, 0x18, 0xd0, 0x10, 0x1c,
  0x2a, 0xe0, 0xab, 0x24, 0x16, 0x05, 0x34, 0xed, 0x29, 0xe5, 0xf6, 0xe2,
  0xbf, 0xa2, 0x0b, 0x0e, 0xaa, 0xeb, 0x98, 0x12, 0xd6, 0xe2, 0xe8, 0xe5,
  0x2c, 0xe0, 0xd7, 0xaf, 0x0c, 0xbc, 0x21, 0x18, 0x03, 0x20, 0x21, 0xb4,
  0x3a, 0xf4, 0xb4, 0xbe, 0xd1, 0xe9, 0xcb, 0xbc, 0xfd, 0xd9, 0xfb, 0xd2,
  0x89, 0x09, 0x9e, 0x94, 0xbc, 0xd3, 0xf2, 0xd0, 0xc9, 0xf7, 0x1b, 0x09,
  0xa2, 0x32, 0x01, 0xfa, 0xce, 0x02, 0xc2, 0xfb, 0xb9, 0xb4, 0xbc, 0xa5,
  0x8e, 0x2f, 0xf7, 0xb6, 0xea, 0xc6, 0x1a, 0xaa, 0xbf, 0xf7, 0x1c, 0x9e,
  0xb4, 0x0c, 0x1f, 0xe0, 0x28, 0x81, 0xff, 0x05, 0xd1, 0x16, 0xc0, 0x12,
  0xc8, 0xef, 0xef, 0xb5, 0xe7, 0x2e, 0xc1, 0xa6, 0x8c, 0x4d, 0xf6, 0xf4,
  0xaf, 0x03, 0x0f, 0xda, 0xed, 0xe5, 0xdb, 0xdf, 0xee, 0xfa, 0xf3, 0xf4,
  0xd5, 0xd1, 0xd0, 0x1b, 0xdf, 0x03, 0xd7, 0xd3, 0xf7, 0xc9, 0xfd, 0xc3,
  0x11, 0xc3, 0x08, 0x14, 0xde, 0xeb, 0xf7, 0xfb, 0x02, 0xd9, 0x1b, 0xee,
  0x01, 0x21, 0xb6, 0xf6, 0xf4, 0xde, 0xaf, 0xf6, 0xd2, 0xfb, 0x20, 0x27,
  0xc4, 0xe7, 0x5f, 0xde, 0xba, 0x0d, 0xdb, 0x06, 0x24, 0xa5, 0xcf, 0x04,
  0x97, 0xc7, 0x8b, 0xe4, 0xfb, 0x16, 0x0d, 0x84, 0xd9, 0x12, 0x33, 0x30,
  0xb2, 0xd0, 0x0c, 0x0d, 0xe5, 0x93, 0x3e, 0x49, 0xdc, 0x09, 0xe2, 0x01,
  0xf7, 0x0d, 0x7f, 0xab, 0x20, 0xea, 0xfd, 0xb0, 0x0f, 0xf2, 0xe7, 0x25,
  0xe3, 0xea, 0x2e, 0xe5, 0x00, 0xe3, 0xa4, 0xa6, 0xf3, 0x1c, 0xf2, 0x36,
  0x19, 0x2a, 0xcd, 0x2b, 0xb2, 0xd3, 0x19, 0x11, 0x4a, 0x1e, 0xe5, 0x0b,
  0xf6, 0x14, 0x19, 0x14, 0x1a, 0xfe, 0x0b, 0x43, 0xc7, 0xce, 0x2b, 0x05,
  0xb5, 0xe1, 0xea, 0xfe, 0x0c, 0xbe, 0xb6, 0x0a, 0xff, 0xc7, 0xcc, 0x0c,
  0xd9, 0x15, 0x1f, 0xf4, 0x39, 0xd2, 0x47, 0xad, 0xfd, 0xcf, 0xac, 0x21,
  0x98, 0x27, 0x04, 0xc4, 0xf1, 0xf9, 0xd4, 0xa8, 0xc3, 0x21, 0xca, 0xee,
  0x0f, 0x81, 0xe9, 0xc6, 0xe7, 0xbf, 0xee, 0x1b, 0xe3, 0x01, 0x1d, 0x17,
  0xb9, 0xcd, 0x35, 0xa3, 0xe2, 0x1d, 0xb6, 0xc8, 0xf4, 0x9c, 0xcd, 0xa7,
  0xb6, 0xd3, 0xe7, 0xa1, 0x82, 0xff, 0xf4, 0xe6, 0xd0, 0x91, 0xcb, 0xd5,
  0xca, 0xf2, 0xd5, 0xf8, 0x23, 0xe9, 0xd1, 0x0b, 0xd8, 0x2a, 0xd2, 0x21,
  0x19, 0x06, 0xb3, 0xb6, 0xbf, 0x02, 0xf4, 0x0f, 0xf3, 0x9f, 0x2b, 0xd2,
  0xa6, 0xd1, 0xa4, 0xf0, 0x81, 0xa4, 0xb7, 0xf6, 0x46, 0x11, 0x29, 0x2b,
  0xdb, 0x36, 0x02, 0x0b, 0x99, 0x0a, 0x8f, 0x94, 0x25, 0x16, 0xd9, 0x3d,
  0x43, 0xc3, 0xfb, 0x07, 0xd0, 0x84, 0xc3, 0x3e, 0x3e, 0xed, 0x20, 0x0d,
  0x29, 0xbc, 0x3b, 0xdb, 0xe7, 0x2f, 0x31, 0xc4, 0x21, 0xcc, 0xbf, 0x0b,
  0xdb, 0xfc, 0xc5, 0x13, 0xee, 0xe1, 0x1e, 0xf0, 0x03, 0xf3, 0x98, 0xdd,
  0x39, 0x27, 0x1c, 0x2e, 0xec, 0x11, 0x04, 0xe6, 0x19, 0xa3, 0x05, 0x01,
  0x68, 0xf3, 0x8c, 0xf3, 0x29, 0xb7, 0xcd, 0xe7, 0xf7, 0xc4, 0x41, 0x13,
  0xdf, 0xef, 0xa3, 0x48, 0x29, 0xfb, 0xd4, 0xe2, 0xe3, 0xa4, 0x21, 0x69,
  0x2e, 0xf9, 0xf3, 0xef, 0xf0, 0xfa, 0xfb, 0x1b, 0xf6, 0x31, 0xad, 0x98,
  0xe5, 0xae, 0xda, 0xe7, 0x12, 0x17, 0xb9, 0x07, 0x20, 0xbf, 0x37, 0x2c,
  0xbd, 0x22, 0xe8, 0xbb, 0xae, 0x10, 0x01, 0x32, 0xbe, 0xcf, 0xe9, 0xf7,
  0x0f, 0xed, 0xad, 0xf6, 0xd4, 0xd7, 0xe5, 0xa7, 0x0a, 0xfa, 0xf7, 0xdf,
  0xb7, 0x0d, 0xca, 0xbb, 0x01, 0xde, 0xff, 0x27, 0x81, 0xbe, 0xe0, 0xc9,
  0xc6, 0xd1, 0xda, 0xff, 0x11, 0x0e, 0x17, 0x11, 0x2a, 0x1f, 0xf0, 0x42,
  0xc2, 0x06, 0xf3, 0x07, 0x3a, 0x81, 0xd0, 0xeb, 0xf9, 0xcc, 0x1b, 0xdd,
  0x02, 0x4c, 0xc6, 0xfa, 0xd1, 0x1c, 0xe4, 0x37, 0x38, 0xa4, 0xd0, 0xef,
  0xfb, 0xe3, 0xf3, 0x20, 0x11, 0xde, 0xbd, 0x57, 0x06, 0x20, 0xb7, 0x00,
  0xff, 0xee, 0xf8, 0x03, 0xc7, 0x18, 0xf0, 0x03, 0x14, 0xea, 0x28, 0xe3,
  0xcf, 0xa4, 0x27, 0x12, 0x12, 0xdf, 0xf8, 0xd4, 0x0f, 0x18, 0xd1, 0xea,
  0x2e, 0xfa, 0xca, 0xe3, 0x15, 0xda, 0x1c, 0x1d, 0x0e, 0xfe, 0x0c, 0x21,
  0xdb, 0x11, 0x04, 0xe1, 0xf0, 0xe8, 0xcc, 0xb8, 0xde, 0xc2, 0xf6, 0xc9,
  0xfc, 0xe1, 0xe6, 0xc0, 0x3b, 0xe1, 0x12, 0x06, 0x32, 0x03, 0x98, 0x33,
  0xf7, 0x35, 0xe5, 0x13, 0x35, 0x81, 0x62, 0xd6, 0x2d, 0x44, 0xa9, 0x01,
  0xd2, 0x08, 0xd3, 0xbf, 0x27, 0x8a, 0x64, 0xb8, 0xfa, 0xd2, 0xee, 0xe5,
  0x8a, 0x01, 0x06, 0x28, 0xaf, 0xe2, 0x14, 0x56, 0xec, 0x84, 0xd1, 0x1c,
  0xe8, 0xeb, 0xe2, 0x13, 0xda, 0xdc, 0x2e, 0xf2, 0xe3, 0x0e, 0x08, 0xa1,
  0xf8, 0x17, 0xc4, 0x36, 0x27, 0xec, 0xbd, 0xec, 0xdd, 0xcb, 0xb4, 0xfa,
  0xde, 0xce, 0xc1, 0x1d, 0xf6, 0xa0, 0xd2, 0xd2, 0xe6, 0x37, 0xd8, 0x1e,
  0xc6, 0x1f, 0xf7, 0xd4, 0x27, 0xc6, 0x19, 0xce, 0xb7, 0x9d, 0xbb, 0xd5,
  0xd8, 0xf5, 0x0c, 0xe4, 0x11, 0xc5, 0xbb, 0x55, 0xd2, 0x85, 0x36, 0xee,
  0x23, 0xab, 0xc5, 0xa8, 0xe8, 0xac, 0x2b, 0x50, 0xc2, 0x0d, 0xe9, 0x0c,
  0x3d, 0xe5, 0x4f, 0xcc, 0x02, 0xc1, 0xef, 0x31, 0x2a, 0xa6, 0xa8, 0x3e,
  0x8a, 0x3d, 0x81, 0x8d, 0xf0, 0x97, 0xeb, 0xe1, 0x29, 0xe2, 0xe9, 0x02,
  0x34, 0xe5, 0xfa, 0xee, 0xe5, 0x8f, 0xde, 0x93, 0x0f, 0xba, 0x92, 0x0e,
  0xa1, 0x9f, 0x33, 0xa5, 0x94, 0x9c, 0x90, 0xb3, 0x03, 0xd7, 0xc7, 0x54,
  0xd8, 0x8e, 0xed, 0xbc, 0xfb, 0xdc, 0x28, 0x11, 0x24, 0x10, 0xd9, 0x44,
  0xb0, 0x15, 0xa5, 0xd7, 0xa2, 0xa9, 0xa0, 0xc6, 0x1b, 0x0d, 0xd5, 0xc7,
  0xb4, 0x17, 0xb9, 0xd7, 0xe3, 0xea, 0xd6, 0xfd, 0xed, 0xf1, 0x02, 0x01,
  0x01, 0xe0, 0x07, 0x15, 0x0e, 0xe0, 0xd6, 0xf9, 0xdf, 0xd4, 0xe8, 0x0f,
  0x07, 0xe8, 0x06, 0xfa, 0xd5, 0xd0, 0xfe, 0x15, 0xe3, 0x07, 0x2a, 0xf5,
  0xd3, 0x26, 0x86, 0xfb, 0x1f, 0xdc, 0x89, 0xf3, 0x0a, 0xe3, 0x2a, 0x1f,
  0xf2, 0x23, 0xff, 0xd6, 0xd9, 0x0c, 0x81, 0xe2, 0xe2, 0x1f, 0xda, 0x34,
  0x2c, 0xac, 0x30, 0xb4, 0xd3, 0x9c, 0xb1, 0x10, 0x44, 0xe0, 0x4f, 0xe9,
  0xf0, 0xdd, 0x3d, 0xa3, 0xe6, 0xfb, 0xda, 0xfd, 0x00, 0x07, 0xbf, 0x20,
  0x17, 0x17, 0x90, 0x37, 0xe3, 0x0f, 0x16, 0xda, 0xdf, 0x0b, 0xae, 0xe8,
  0x3e, 0xf3, 0x0a, 0x3d, 0xbf, 0xde, 0xc2, 0xc3, 0xf6, 0xe7, 0xc0, 0xea,
  0xe3, 0xcd, 0xfe, 0x07, 0x07, 0xfe, 0x1d, 0xdd, 0xca, 0xa3, 0xe9, 0xf5,
  0x07, 0xbe, 0xf1, 0xdd, 0xb6, 0xcb, 0x1e, 0xf2, 0xc7, 0xf4, 0x0a, 0xda,
  0x47, 0x0e, 0xb6, 0xb3, 0x23, 0xe7, 0x96, 0xdd, 0xcc, 0xe4, 0xbe, 0x07,
  0xb3, 0x0a, 0x1d, 0x16, 0x17, 0xeb, 0xef, 0xf6, 0x07, 0x0f, 0xd1, 0x2e,
  0x1e, 0x0d, 0x3d, 0x9b, 0x07, 0x0b, 0xa7, 0x47, 0xed, 0xf5, 0x11, 0x04,
  0x00, 0xfb, 0xf2, 0x1d, 0x7f, 0xfb, 0xd4, 0xd7, 0x23, 0xf7, 0xff, 0xd5,
  0x2a, 0x0c, 0x3e, 0xfe, 0x29, 0xe3, 0x00, 0xfb, 0xdc, 0x3f, 0x17, 0x0e,
  0xdd, 0x14, 0xf0, 0xf8, 0x3d, 0xf1, 0x05, 0xc5, 0xf6, 0xd0, 0xe2, 0x31,
  0x92, 0xd1, 0xc3, 0xd4, 0xa5, 0xf1, 0xc2, 0x23, 0x10, 0xd7, 0x99, 0xf8,
  0xec, 0xcc, 0xe8, 0xca, 0xb6, 0x07, 0xb4, 0xfd, 0xfb, 0xa9, 0xe3, 0xa3,
  0xd2, 0xfa, 0x0f, 0x0d, 0xdb, 0xb4, 0xf5, 0xe1, 0xd4, 0xb9, 0x5f, 0xcf,
  0x33, 0x45, 0xfa, 0xe1, 0x13, 0xd9, 0xad, 0x1a, 0xe8, 0xd9, 0x7c, 0xac,
  0xf2, 0x14, 0x59, 0x9b, 0x1f, 0x1b, 0xea, 0xe5, 0xd7, 0xe6, 0xdc, 0xbc,
  0xe1, 0xe2, 0xdd, 0xf1, 0xd9, 0x34, 0xb0, 0x0a, 0x81, 0xea, 0x34, 0xd5,
  0x06, 0x0b, 0xd9, 0x19, 0x1e, 0x11, 0xbd, 0xfd, 0xf0, 0xea, 0xf6, 0xc3,
  0x85, 0x9b, 0x17, 0xca, 0x1b, 0x2a, 0x05, 0xae, 0x01, 0x48, 0xd9, 0x24,
  0x7c, 0x0b, 0xe1, 0x21, 0xdd, 0x81, 0xd5, 0xe5, 0x34, 0xc9, 0x1d, 0xa1,
  0xe7, 0x46, 0xea, 0x20, 0x26, 0xf1, 0x2f, 0x22, 0x45, 0xdc, 0x35, 0xc1,
  0xcb, 0xe9, 0xe8, 0x1e, 0x48, 0xef, 0xb5, 0xa3, 0xd0, 0x09, 0xca, 0xe8,
  0x12, 0xc1, 0x0a, 0x36, 0xa0, 0xe0, 0x12, 0xc4, 0xf5, 0x41, 0x3d, 0xc7,
  0xb6, 0x9f, 0x2b, 0xef, 0x02, 0xd6, 0xb7, 0x3a, 0xbc, 0xe6, 0xdc, 0xc4,
  0xed, 0xef, 0xb0, 0xcb, 0xd3, 0xcb, 0xf2, 0xe6, 0xc8, 0x0a, 0xf0, 0x1c,
  0xab, 0x01, 0xd4, 0xd5, 0xd7, 0xef, 0xfc, 0xed, 0x08, 0xc8, 0xb6, 0xa3,
  0x10, 0xbd, 0xff, 0xaa, 0x1e, 0xf3, 0x0e, 0x11, 0x15, 0xd1, 0xfa, 0xf2,
  0xd1, 0x0f, 0xd9, 0x04, 0x3e, 0xc7, 0x0d, 0xf5, 0xc1, 0x10, 0x1a, 0x1f,
  0xeb, 0xfe, 0xc0, 0x00, 0xd8, 0xd4, 0x16, 0xdb, 0x06, 0xf1, 0xe0, 0x26,
  0x11, 0xde, 0xe5, 0xe1, 0xd1, 0xf1, 0x06, 0x06, 0xdb, 0x0d, 0xd3, 0xcd,
  0xe6, 0x81, 0xef, 0x07, 0xd6, 0xde, 0xd7, 0x10, 0xf4, 0xba, 0x17, 0x01,
  0x02, 0xf2, 0xfc, 0x22, 0xd6, 0x25, 0x0d, 0xc7, 0x31, 0xdc, 0xf3, 0xe8,
  0x30, 0xe7, 0x0e, 0xec, 0xe8, 0x20, 0x08, 0xf6, 0xd7, 0xee, 0x15, 0xf4,
  0xf6, 0xfa, 0xea, 0x0d, 0x19, 0x4f, 0xdb, 0xd9, 0xf9, 0x17, 0x13, 0xec,
  0xea, 0xf4, 0x02, 0xcf, 0xe9, 0xfe, 0xcb, 0xef, 0xc7, 0xed, 0xf2, 0xdb,
  0xda, 0xea, 0xfc, 0x00, 0xef, 0x02, 0xf2, 0x08, 0x15, 0x00, 0xf2, 0x00,
  0xf6, 0xf9, 0xe3, 0xfa, 0xcb, 0xeb, 0xee, 0xe9, 0xc9, 0xee, 0xc1, 0x0a,
  0xce, 0x0b, 0x01, 0x50, 0xfe, 0xe3, 0xca, 0x13, 0xc0, 0xfa, 0x57, 0x9a,
  0x16, 0x17, 0x14, 0xf8, 0x0c, 0x47, 0xd6, 0x06, 0xdd, 0x81, 0x1d, 0xc3,
  0xfe, 0xf8, 0xcb, 0xf1, 0xe5, 0xdd, 0xed, 0xcf, 0xfd, 0x18, 0x32, 0xeb,
  0xf1, 0xca, 0x3e, 0x26, 0xe2, 0xad, 0x0e, 0x4b, 0x06, 0x1c, 0xf7, 0x05,
  0xda, 0xe7, 0x49, 0xed, 0x2e, 0x02, 0xe5, 0xef, 0x65, 0x11, 0x2a, 0xf2,
  0x40, 0x01, 0xe8, 0x3e, 0x14, 0xdb, 0xf1, 0xd3, 0xc0, 0xe6, 0xee, 0x2e,
  0x1a, 0x45, 0xc5, 0x06, 0xcb, 0xc9, 0x2e, 0x0c, 0xd9, 0x2a, 0xcb, 0x03,
  0x21, 0x91, 0xce, 0x12, 0xec, 0xbd, 0xf6, 0xdb, 0x02, 0xfd, 0x09, 0x7f,
  0xe9, 0xd7, 0x23, 0x13, 0xe5, 0xe1, 0x54, 0x18, 0xa6, 0xcd, 0x9b, 0x34,
  0xf9, 0xb7, 0x1b, 0xd5, 0xc5, 0x37, 0x23, 0x00, 0x22, 0xf4, 0x11, 0xdf,
  0xb8, 0xdd, 0xea, 0xd7, 0xd3, 0x5c, 0x08, 0xf6, 0xde, 0xeb, 0xa0, 0x34,
  0x20, 0x09, 0x4f, 0x1d, 0xfd, 0xfc, 0x19, 0x49, 0xde, 0xd8, 0x0b, 0x08,
  0xfe, 0xd3, 0xf2, 0x48, 0xf4, 0x48, 0xe8, 0xa8, 0x48, 0x42, 0x03, 0xd0,
  0xfe, 0x12, 0x27, 0x1a, 0x1d, 0x1a, 0x06, 0xdd, 0xb8, 0xbc, 0x03, 0x1c,
  0x11, 0x04, 0xa8, 0x1e, 0xbe, 0xf9, 0xf3, 0xe9, 0xbe, 0xf1, 0xa9, 0xbc,
  0x23, 0x10, 0xee, 0xe5, 0x14, 0x05, 0x0d, 0xcc, 0xf7, 0xcb, 0x20, 0x19,
  0xd7, 0xef, 0xad, 0xaf, 0x03, 0xfc, 0xd6, 0xb2, 0xc7, 0x1b, 0xc8, 0x11,
  0x98, 0xba, 0xde, 0x05, 0x34, 0x81, 0xc3, 0xf0, 0xd7, 0x3d, 0xe1, 0x1d,
  0xce, 0x46, 0xdd, 0x5c, 0xb4, 0xeb, 0x35, 0x10, 0x98, 0x03, 0xff, 0x09,
  0xef, 0x0a, 0xd6, 0x18, 0xeb, 0x38, 0xf4, 0x75, 0x3a, 0xf6, 0xe6, 0xf1,
  0x4d, 0xe5, 0x2a, 0xb1, 0xdb, 0x20, 0xb7, 0xf9, 0x9c, 0xea, 0xe9, 0xe9,
  0xfc, 0x0d, 0xe9, 0x99, 0x9c, 0x07, 0x09, 0x2d, 0x39, 0xb7, 0xf1, 0x05,
  0x8b, 0xb3, 0xd5, 0xde, 0x0d, 0xe0, 0xa6, 0xfc, 0xca, 0xf7, 0x53, 0x22,
  0x03, 0xee, 0xfd, 0xb9, 0xe4, 0xf7, 0x0d, 0xb7, 0xce, 0x90, 0xf4, 0xfa,
  0x20, 0x03, 0x0a, 0xea, 0x01, 0xb2, 0xd3, 0x28, 0x09, 0x1e, 0x35, 0x3a,
  0x2e, 0x17, 0xd5, 0xd7, 0x2b, 0xa0, 0xc0, 0x35, 0xe6, 0xf0, 0x04, 0x1e,
  0xd9, 0x2f, 0xc8, 0x81, 0xdb, 0xa9, 0x35, 0xae, 0x14, 0xf7, 0x04, 0x00,
  0xf4, 0x10, 0xcc, 0xef, 0xd2, 0xf3, 0x1d, 0x23, 0xec, 0x64, 0x11, 0xf2,
  0x40, 0xd9, 0xb9, 0xf5, 0xe5, 0xe6, 0x1e, 0x39, 0xf2, 0x12, 0x1f, 0x37,
  0xc0, 0xd9, 0x01, 0xa2, 0x25, 0x00, 0xa6, 0xa7, 0xe1, 0xdc, 0xbe, 0x16,
  0xdd, 0xbc, 0xf9, 0x32, 0xfb, 0x3e, 0xe9, 0xf6, 0xc8, 0xd3, 0xca, 0xec,
  0x16, 0xb4, 0xd6, 0x29, 0xf6, 0xc2, 0xe0, 0xce, 0xea, 0x26, 0x02, 0xe8,
  0x08, 0x18, 0x23, 0x1e, 0xe8, 0x35, 0xcc, 0x2a, 0x51, 0x01, 0xfc, 0x0a,
  0x2c, 0xae, 0xe6, 0x04, 0xde, 0xdf, 0xe2, 0xbe, 0x1a, 0xee, 0xb1, 0x14,
  0xbf, 0xdd, 0x0a, 0xe1, 0x0e, 0xdc, 0x81, 0xb3, 0xd4, 0xe5, 0xea, 0xdb,
  0x21, 0xbf, 0x32, 0x14, 0xeb, 0xdf, 0xd6, 0xad, 0xdb, 0xd1, 0x21, 0x00,
  0xde, 0xea, 0xf8, 0xdd, 0x22, 0x20, 0xac, 0xd0, 0x27, 0x0b, 0xcb, 0x14,
  0xcb, 0x01, 0xf9, 0x1e, 0xec, 0x8b, 0x09, 0xc4, 0xc3, 0xee, 0xfc, 0xbc,
  0xfd, 0x9b, 0x0a, 0x13, 0xb7, 0x0e, 0x2b, 0x3f, 0xb0, 0x06, 0x06, 0xad,
  0xea, 0xc7, 0x1a, 0xb8, 0xea, 0x84, 0xbd, 0xe4, 0xab, 0xb9, 0xc0, 0xb8,
  0xe3, 0x17, 0x2b, 0xf3, 0xa1, 0xb1, 0x94, 0x27, 0xfe, 0xa2, 0xb9, 0xd6,
  0x86, 0x47, 0x24, 0x4e, 0xc9, 0x03, 0xc1, 0xcf, 0x16, 0x13, 0xe3, 0x9e,
  0x9b, 0xb4, 0xa7, 0xbf, 0xa1, 0x1b, 0x2d, 0x2e, 0x07, 0xdf, 0x81, 0x18,
  0xc0, 0x93, 0x09, 0xd8, 0x10, 0x19, 0x01, 0xb2, 0x9b, 0x42, 0xc0, 0xff,
  0xbd, 0x04, 0xda, 0xcc, 0x21, 0xf6, 0x1c, 0x18, 0xec, 0x06, 0xce, 0x9f,
  0x12, 0xb0, 0xa0, 0xc8, 0x1b, 0x0e, 0xcf, 0xee, 0x33, 0xef, 0xba, 0xe0,
  0xa9, 0xd0, 0xdc, 0xda, 0xbf, 0xc5, 0x05, 0x01, 0x28, 0xbb, 0xdd, 0x96,
  0xf8, 0xbe, 0x1c, 0x09, 0xe5, 0xc0, 0x1c, 0xd2, 0x27, 0x1e, 0x40, 0x35,
  0x00, 0x2f, 0xc4, 0xfa, 0x44, 0xb1, 0x0b, 0xc6, 0x3a, 0x16, 0x00, 0xee,
  0x81, 0xa8, 0xef, 0xc6, 0xc9, 0xe8, 0xbd, 0xa0, 0x32, 0x07, 0x17, 0xe9,
  0xa2, 0x00, 0xfb, 0xb2, 0xf1, 0xbd, 0x03, 0xf1, 0x0a, 0x47, 0xa0, 0x21,
  0xdb, 0xda, 0xd5, 0x05, 0xea, 0x22, 0xb3, 0xe1, 0xa5, 0x03, 0xdf, 0x0b,
  0x1e, 0x14, 0x26, 0xc0, 0xe7, 0x07, 0x32, 0x03, 0xaa, 0xbc, 0xbb, 0xea,
  0xcf, 0xc7, 0xe5, 0xff, 0x24, 0x06, 0x32, 0x13, 0xde, 0x2f, 0xf2, 0xd3,
  0xd1, 0xff, 0xfc, 0xe8, 0x24, 0xdd, 0xf0, 0xfd, 0xb3, 0xcf, 0xd4, 0xcc,
  0x12, 0xfd, 0xdf, 0x04, 0x9a, 0x9c, 0x10, 0xf7, 0x6e, 0xbb, 0xea, 0x11,
  0xb3, 0x1b, 0xc8, 0xd6, 0x08, 0x98, 0xf7, 0xa3, 0x08, 0xb9, 0xd0, 0x81,
  0xef, 0x0c, 0xd9, 0x2c, 0xc6, 0xdf, 0xb6, 0xc7, 0x3a, 0xcc, 0x99, 0xf4,
  0x51, 0xe3, 0xc6, 0x32, 0xc7, 0xf4, 0xde, 0x24, 0xd8, 0x31, 0xe2, 0xe5,
  0xf9, 0x98, 0xa5, 0xc1, 0xfb, 0xdc, 0x17, 0xd2, 0x9b, 0xae, 0x18, 0xd4,
  0x12, 0xe6, 0xf1, 0xe1, 0xd7, 0xf6, 0xa6, 0x1f, 0x24, 0x27, 0xa1, 0x7a,
  0xae, 0xc4, 0xf7, 0x15, 0x38, 0x11, 0x81, 0xf7, 0x5c, 0x2a, 0xb4, 0xf1,
  0x05, 0xad, 0x29, 0x51, 0xa7, 0x4a, 0xab, 0xf1, 0xed, 0xd7, 0xc8, 0xb3,
  0xdd, 0x0e, 0xe1, 0x0c, 0x19, 0xb2, 0x41, 0xf0, 0xef, 0x00, 0x24, 0xa1,
  0xcf, 0xe1, 0x0e, 0xee, 0xec, 0xf4, 0x07, 0x1a, 0x5a, 0xc7, 0xf7, 0x12,
  0x2c, 0xe0, 0xf1, 0x26, 0x96, 0x07, 0xdc, 0xe6, 0x09, 0xba, 0x26, 0xd7,
  0xf6, 0xea, 0x0b, 0x28, 0x1a, 0x02, 0xf0, 0x26, 0xed, 0x25, 0xc7, 0xe7,
  0x0c, 0xa8, 0x9c, 0x2f, 0xe6, 0xba, 0xf5, 0x10, 0xef, 0x26, 0x1a, 0x22,
  0xb9, 0xd5, 0xcf, 0xb0, 0xd6, 0xfe, 0xf3, 0xfc, 0xc7, 0xcc, 0x15, 0xc3,
  0xf3, 0xd2, 0xc0, 0xcf, 0xb5, 0x11, 0x0a, 0xd1, 0xf7, 0x33, 0x56, 0x50,
  0x98, 0xe2, 0xe6, 0xfc, 0xba, 0xc7, 0xd6, 0x11, 0xf5, 0xce, 0xe0, 0x05,
  0xff, 0x1d, 0xf6, 0x96, 0x81, 0x1e, 0xbf, 0x44, 0x21, 0x62, 0xcd, 0xf3,
  0x2b, 0xeb, 0xb5, 0x1e, 0xf6, 0xd5, 0xfc, 0x38, 0xc6, 0x27, 0xd8, 0x01,
  0x11, 0x02, 0xd5, 0xe7, 0xef, 0xb9, 0xfc, 0x4d, 0x00, 0x02, 0xe3, 0x05,
  0x9c, 0xc6, 0x25, 0xd4, 0xdd, 0xc3, 0x28, 0xdc, 0xe9, 0xff, 0xb0, 0xfa,
  0x14, 0x8a, 0xbd, 0xdc, 0xec, 0xed, 0xcd, 0xd0, 0x0d, 0xe1, 0x27, 0x1b,
  0x9b, 0xd7, 0xef, 0xe7, 0xeb, 0x04, 0xee, 0xd3, 0xc5, 0xc4, 0xe5, 0x8c,
  0x05, 0x07, 0xe4, 0x0b, 0xe2, 0x01, 0xdc, 0xb1, 0xcd, 0x86, 0x93, 0x2b,
  0xcb, 0xfc, 0x04, 0xc4, 0xb3, 0xee, 0xdd, 0xcd, 0x69, 0xe6, 0xef, 0x45,
  0xeb, 0xd7, 0xcc, 0x13, 0xe6, 0x1e, 0xb8, 0x31, 0xad, 0xe8, 0x2c, 0x89,
  0x1b, 0xfa, 0xa2, 0x98, 0x61, 0xf2, 0xb0, 0xd6, 0xfa, 0x26, 0xc9, 0xfd,
  0xf2, 0xe1, 0x52, 0xee, 0x6f, 0xc2, 0xb2, 0xc4, 0xd6, 0x5b, 0xc6, 0xd7,
  0x0c, 0x02, 0x79, 0x3f, 0x81, 0xdc, 0xae, 0xbc, 0xbb, 0xee, 0x30, 0xf2,
  0x0c, 0xee, 0xdc, 0xe6, 0x22, 0xc1, 0xcf, 0x33, 0x19, 0xb6, 0x8c, 0x0b,
  0x64, 0xec, 0x48, 0xf7, 0x0b, 0xbd, 0xcd, 0xe1, 0x96, 0x54, 0xf8, 0x05,
  0x19, 0xe8, 0xce, 0x02, 0x2a, 0x15, 0xbe, 0xe4, 0x22, 0x06, 0xc2, 0x06,
  0xf0, 0xc9, 0xe0, 0x0c, 0x81, 0xab, 0xce, 0x17, 0x3b, 0xba, 0xb5, 0x0e,
  0x1a, 0x23, 0xb7, 0xed, 0x14, 0x23, 0x54, 0xa1, 0xc6, 0xbd, 0xee, 0x1b,
  0xe0, 0x23, 0x13, 0xe9, 0xb0, 0xe0, 0xf7, 0xee, 0x29, 0xb3, 0x49, 0xe4,
  0x25, 0x24, 0xe8, 0xff, 0x30, 0xb2, 0xc8, 0xff, 0x19, 0xb4, 0x4a, 0xc4,
  0xe2, 0x37, 0xd4, 0x10, 0x31, 0xde, 0xf8, 0x0c, 0xfd, 0xe6, 0x03, 0xda,
  0xe4, 0xfa, 0xd9, 0xf2, 0xff, 0x00, 0x20, 0xda, 0xd9, 0x0a, 0xf9, 0xe4,
  0x01, 0xe4, 0xba, 0x0a, 0x08, 0xd7, 0xde, 0x33, 0xff, 0xcb, 0x33, 0xc6,
  0xa4, 0xd3, 0x12, 0x8f, 0xe5, 0xea, 0xec, 0xf6, 0xea, 0xfb, 0x01, 0xf0,
  0x1e, 0x0c, 0xfc, 0xf4, 0x1c, 0x17, 0xec, 0x04, 0xfa, 0x00, 0x02, 0x09,
  0xdc, 0xee, 0xe3, 0xf1, 0xef, 0xf4, 0x1b, 0xf0, 0x09, 0xfd, 0x0b, 0xde,
  0xc8, 0x11, 0xa0, 0x13, 0x06, 0x04, 0x81, 0x25, 0xe4, 0x9d, 0x3b, 0xda,
  0xa2, 0x38, 0xd6, 0xd9, 0xab, 0x0e, 0xf0, 0xb2, 0x09, 0xac, 0xaa, 0xd9,
  0xf7, 0x9b, 0xee, 0xef, 0xdd, 0x9e, 0xd1, 0xc6, 0x19, 0x03, 0xfa, 0xfb,
  0xfb, 0xcc, 0x07, 0xf7, 0xd2, 0xcd, 0x05, 0xc6, 0x2f, 0x07, 0xf0, 0xec,
  0xe6, 0xdd, 0xbf, 0xe2, 0xf2, 0xdc, 0x22, 0xde, 0xf3, 0xb8, 0xa6, 0x1b,
  0x33, 0xfb, 0xcf, 0x14, 0xf1, 0xf8, 0xd9, 0x94, 0x2b, 0x13, 0xbf, 0x0b,
  0xf3, 0xbc, 0xee, 0x01, 0xd2, 0xd0, 0xa2, 0x16, 0x14, 0xb3, 0xfd, 0xe8,
  0xe4, 0x5a, 0xe2, 0xc5, 0x01, 0xb9, 0x6d, 0xb2, 0x08, 0xb4, 0xe0, 0x31,
  0xba, 0xe1, 0xfc, 0x18, 0x47, 0xb5, 0xe8, 0xe5, 0xd8, 0xbe, 0xb5, 0xea,
  0x18, 0xc1, 0xde, 0x26, 0x81, 0xee, 0x53, 0x3a, 0x20, 0x05, 0xe1, 0x1c,
  0x0a, 0xee, 0xe2, 0xf8, 0x02, 0x8d, 0xeb, 0x57, 0x42, 0x15, 0xdf, 0x0d,
  0xcd, 0x0b, 0xef, 0xf2, 0x1c, 0x37, 0x36, 0x15, 0xe7, 0x11, 0x0f, 0x33,
  0xe6, 0xed, 0xc1, 0x2f, 0xdd, 0x0d, 0x6e, 0x13, 0xcf, 0xc1, 0x3a, 0xcf,
  0xe7, 0xff, 0x14, 0xbf, 0x10, 0x12, 0xd8, 0x9b, 0xcf, 0xac, 0xf9, 0x01,
  0x76, 0x23, 0xc2, 0x15, 0x02, 0xfe, 0xc7, 0x24, 0x3c, 0x81, 0x0a, 0xf2,
  0x04, 0xf7, 0xe2, 0x06, 0x0e, 0xfb, 0xd8, 0xd9, 0x0c, 0x22, 0xe9, 0xf3,
  0x29, 0xf4, 0xec, 0xb8, 0xc6, 0xd8, 0xd4, 0x11, 0xce, 0xff, 0xc2, 0x19,
  0xc1, 0x00, 0xf2, 0x1a, 0xec, 0xf4, 0xc5, 0x00, 0x04, 0xfd, 0xf7, 0x57,
  0x25, 0x27, 0xc0, 0xda, 0xe3, 0x11, 0x03, 0x35, 0x21, 0x14, 0x00, 0x09,
  0x21, 0x0b, 0x16, 0xfd, 0x27, 0x3a, 0xed, 0xf8, 0x1a, 0xfc, 0xd3, 0x10,
  0x10, 0xcc, 0xe8, 0xfa, 0x17, 0xe1, 0x0d, 0xd6, 0xed, 0x42, 0xe6, 0xf2,
  0xc8, 0x1c, 0xed, 0xce, 0x00, 0x10, 0x00, 0xc4, 0xf8, 0x26, 0xef, 0x17,
  0x1c, 0xad, 0xe8, 0x15, 0xe1, 0x09, 0xc9, 0xec, 0xbc, 0xd5, 0x1f, 0xdd,
  0x02, 0x12, 0xe0, 0xdf, 0xdd, 0x17, 0xd4, 0x08, 0x7f, 0xae, 0xf6, 0xe9,
  0xd3, 0xf2, 0xec, 0x05, 0x12, 0xe3, 0xc9, 0xd9, 0xdd, 0xf6, 0xc6, 0xc9,
  0xf8, 0xfc, 0xc7, 0x08, 0xec, 0xfc, 0xd4, 0xd4, 0x0a, 0xe5, 0xc4, 0xec,
  0xdc, 0xe4, 0xc8, 0xe1, 0xa8, 0xd9, 0xe3, 0x53, 0xe0, 0xe3, 0xe4, 0xe4,
  0xeb, 0xf8, 0xc3, 0xdd, 0xf1, 0xe0, 0xe8, 0xf3, 0x0a, 0x03, 0x15, 0x1b,
  0xdb, 0xcb, 0x08, 0xf1, 0x20, 0x19, 0xe3, 0xff, 0x15, 0xd8, 0xe6, 0x0b,
  0x07, 0xfb, 0xcf, 0xfe, 0xca, 0xda, 0xff, 0xff, 0x04, 0x00, 0x00, 0x00,
  0x00, 0x0c, 0x00, 0x00, 0x95, 0xd0, 0x05, 0xfa, 0xf3, 0x02, 0xdc, 0xce,
  0xdc, 0xc4, 0xf7, 0xe7, 0x19, 0xf1, 0xb4, 0xb6, 0xe6, 0x07, 0xe4, 0x10,
  0xd9, 0xf7, 0xd2, 0x16, 0x07, 0x31, 0x81, 0x0e, 0xf2, 0x38, 0xf8, 0xc5,
  0x43, 0xe3, 0x05, 0xe8, 0x6c, 0xe3, 0x2c, 0xdb, 0xed, 0xfe, 0x0f, 0x26,
  0xf1, 0x2b, 0xdb, 0xf0, 0x03, 0xbc, 0xfe, 0x0b, 0x03, 0x0c, 0xf4, 0x35,
  0x0e, 0xf0, 0x16, 0xd4, 0xf0, 0xec, 0x0c, 0xc5, 0x26, 0x49, 0x55, 0xc9,
  0x10, 0x42, 0xbf, 0xfd, 0x29, 0xb9, 0xdc, 0xd9, 0xda, 0x33, 0xc4, 0x13,
  0xdc, 0xd4, 0xf5, 0xe3, 0x07, 0x28, 0x17, 0x95, 0xe2, 0xe2, 0x1a, 0x22,
  0xee, 0xed, 0x2a, 0x18, 0x85, 0x90, 0x57, 0xb3, 0x2d, 0xe4, 0x4a, 0xa7,
  0x1b, 0xd1, 0xbd, 0x0a, 0xc6, 0x3c, 0xbf, 0x39, 0xa0, 0xc9, 0x83, 0xe1,
  0x7f, 0xb6, 0xf4, 0x9e, 0x0f, 0x93, 0x12, 0xbd, 0x84, 0xfd, 0x2c, 0xe8,
  0xb2, 0x0b, 0xa2, 0x13, 0x0b, 0xd4, 0xb8, 0xfa, 0xd5, 0xfe, 0xf1, 0xfa,
  0xc5, 0x9d, 0xec, 0xc5, 0xcf, 0x35, 0xf6, 0xeb, 0x19, 0xa8, 0xd7, 0x89,
  0xe1, 0xa0, 0xf9, 0x0e, 0x1d, 0xc7, 0xe4, 0x99, 0x13, 0x9c, 0xe9, 0xcb,
  0x1e, 0x10, 0xb4, 0x19, 0xfc, 0x38, 0xe2, 0xc3, 0xd1, 0x37, 0xc3, 0x9b,
  0xa0, 0xf5, 0x28, 0xb7, 0x2b, 0xd7, 0x9c, 0x17, 0xf8, 0xe4, 0x2d, 0xb7,
  0xea, 0x8d, 0xe3, 0xc9, 0x28, 0x18, 0xde, 0x07, 0x4b, 0x13, 0x03, 0x0b,
  0x61, 0xfa, 0x10, 0x17, 0xd2, 0xaf, 0x0f, 0x15, 0x21, 0xf4, 0x11, 0x46,
  0x22, 0x0c, 0x0c, 0xf4, 0x19, 0x31, 0x50, 0x4c, 0x02, 0x18, 0x13, 0xec,
  0x1c, 0xf0, 0x11, 0xed, 0xf0, 0xfb, 0xd7, 0x01, 0xe1, 0x18, 0xe4, 0xee,
  0xe7, 0xe2, 0xfa, 0xca, 0x97, 0xb6, 0xcd, 0xca, 0xff, 0x2f, 0x95, 0x37,
  0xaa, 0xc8, 0xcf, 0xcb, 0x99, 0x8c, 0x16, 0xc7, 0x1f, 0x31, 0x12, 0xc4,
  0xf8, 0xe2, 0xd6, 0xf5, 0xee, 0xf5, 0xe0, 0x09, 0xd0, 0xe7, 0xf7, 0x10,
  0x4b, 0x5d, 0xfa, 0x3f, 0xca, 0x81, 0xf0, 0xe1, 0x10, 0x40, 0x0f, 0x0f,
  0x37, 0x1f, 0xf7, 0x5d, 0xe7, 0x0f, 0xf1, 0xe0, 0x1d, 0x0a, 0x14, 0xe1,
  0xfe, 0xce, 0xf0, 0xf6, 0xd6, 0xd8, 0xd0, 0x0f, 0x1b, 0x02, 0x14, 0x23,
  0x0e, 0xf8, 0x06, 0xb8, 0x07, 0x22, 0x09, 0x1d, 0x28, 0x05, 0xcf, 0x00,
  0xd5, 0x01, 0x03, 0x04, 0xfa, 0x19, 0xdc, 0x26, 0xf2, 0xc1, 0x02, 0x1f,
  0xf7, 0xf6, 0xd1, 0xc7, 0xc6, 0xe1, 0xd8, 0xf0, 0x0e, 0x23, 0xf8, 0x0d,
  0x01, 0x08, 0xf4, 0xac, 0xb9, 0xc3, 0x16, 0xd0, 0x17, 0x9c, 0xc7, 0xbc,
  0x43, 0x81, 0x04, 0xe5, 0xbb, 0x0d, 0xf1, 0x04, 0xdf, 0xec, 0x39, 0x0b,
  0x13, 0xab, 0xdf, 0x04, 0xf0, 0xeb, 0xb5, 0xfa, 0x0a, 0xee, 0x18, 0xc8,
  0x11, 0x1a, 0x02, 0xcb, 0x01, 0xfd, 0xf3, 0xe1, 0xe7, 0x00, 0xe1, 0xe2,
  0xd9, 0xf1, 0x29, 0xeb, 0xe5, 0xda, 0xd5, 0xd5, 0xd5, 0x39, 0xc5, 0xd7,
  0xfa, 0xcf, 0xfc, 0xe0, 0xd0, 0xf9, 0xfd, 0xaf, 0xc5, 0xcf, 0x1d, 0xcb,
  0x26, 0x13, 0x25, 0xeb, 0xec, 0x12, 0x0f, 0x28, 0x0f, 0xed, 0x03, 0xf2,
  0xd1, 0x24, 0xe7, 0x14, 0xf8, 0xe4, 0x04, 0x13, 0x0f, 0x07, 0xd6, 0xb6,
  0xf0, 0xed, 0x09, 0xfa, 0xec, 0xef, 0xdb, 0x02, 0xef, 0x09, 0xb8, 0xca,
  0x11, 0xd4, 0xe8, 0xed, 0x20, 0xd6, 0x06, 0x13, 0xe3, 0xc6, 0xdc, 0x00,
  0xbb, 0x04, 0xe2, 0xe5, 0x02, 0x81, 0x3b, 0x2c, 0x07, 0xea, 0x94, 0x0f,
  0xce, 0xb2, 0xcd, 0xf0, 0x09, 0x15, 0x2e, 0x0f, 0x66, 0xc6, 0x04, 0x25,
  0x03, 0xb9, 0x26, 0x0c, 0x17, 0x34, 0xe5, 0x10, 0x34, 0x0c, 0x49, 0x02,
  0x05, 0xe2, 0xf1, 0xec, 0x4c, 0x09, 0x29, 0x17, 0x04, 0xf1, 0x14, 0x12,
  0xd1, 0xf7, 0x04, 0xf5, 0xcf, 0x06, 0xfa, 0xfb, 0x08, 0xfa, 0x3a, 0x02,
  0x00, 0xf7, 0x4d, 0xf4, 0x13, 0xe8, 0x2e, 0xf5, 0x0b, 0x1d, 0x39, 0xda,
  0xd6, 0x1d, 0xb8, 0x01, 0x17, 0xd8, 0x1a, 0xdd, 0xa2, 0x0e, 0x1a, 0x1e,
  0x22, 0x3a, 0xf2, 0x10, 0xfc, 0x2a, 0xcc, 0x09, 0xd0, 0xcf, 0xed, 0xbb,
  0xe2, 0x60, 0xfb, 0xe9, 0x05, 0x1a, 0x03, 0xcd, 0xaa, 0x81, 0xc8, 0x30,
  0xdc, 0xb5, 0xfe, 0x1f, 0xe1, 0xff, 0x08, 0x2a, 0xe0, 0xd5, 0xca, 0x55,
  0xe2, 0xc3, 0xf4, 0x15, 0x38, 0x20, 0x27, 0xfd, 0x1f, 0x0e, 0x0d, 0x29,
  0x0f, 0x18, 0xe3, 0x29, 0x13, 0xf7, 0xf1, 0xda, 0x0a, 0x04, 0xff, 0x02,
  0xe8, 0xa6, 0xc6, 0x2b, 0xce, 0x81, 0xfb, 0xb0, 0xdd, 0x32, 0xf7, 0xeb,
  0x1d, 0xdf, 0xef, 0xbc, 0x82, 0xd2, 0x28, 0xc8, 0xed, 0x12, 0xd8, 0x08,
  0xc5, 0xe5, 0xf1, 0xcb, 0xb9, 0x0e, 0xcc, 0xb5, 0x0b, 0x5e, 0x26, 0xe2,
  0x22, 0xd4, 0x29, 0x1e, 0x1b, 0xfa, 0x0d, 0x13, 0xf7, 0x12, 0xc1, 0x1b,
  0x06, 0xfe, 0x0e, 0x20, 0x13, 0xc6, 0x3d, 0x06, 0x17, 0x40, 0x20, 0x1e,
  0xf7, 0x1c, 0x0c, 0x47, 0xe8, 0x0c, 0xd2, 0x9d, 0xda, 0x92, 0xf5, 0xb9,
  0x09, 0x17, 0x12, 0x94, 0xee, 0x82, 0x1a, 0xfc, 0xe3, 0xb9, 0xd0, 0xca,
  0x12, 0x15, 0x2f, 0xc1, 0xe1, 0x16, 0x96, 0x95, 0xdc, 0x3a, 0x63, 0x17,
  0xd3, 0xef, 0xcd, 0x81, 0xeb, 0xfe, 0x06, 0xf9, 0x05, 0xc5, 0xe2, 0xdd,
  0xce, 0xff, 0xff, 0xa5, 0xac, 0x0f, 0xf3, 0x9a, 0xe2, 0xd2, 0x4b, 0xf3,
  0xb8, 0x1f, 0xf2, 0xab, 0xc0, 0xa5, 0xc3, 0xc4, 0xe1, 0xbc, 0xbc, 0x97,
  0xc9, 0xba, 0xcf, 0xc2, 0xbe, 0xe7, 0xfd, 0xf4, 0xc9, 0x9c, 0x27, 0xa8,
  0xa9, 0x04, 0x98, 0xcf, 0xf7, 0xc3, 0xc6, 0xc4, 0xa7, 0xe9, 0xaf, 0xf9,
  0xf7, 0xfd, 0xd7, 0x20, 0x17, 0xfb, 0xea, 0xf4, 0xf8, 0xb6, 0x30, 0xe2,
  0xdb, 0x04, 0x0f, 0x02, 0x0c, 0xf0, 0xc6, 0xa8, 0x1f, 0x9d, 0x19, 0xd8,
  0xf7, 0xf6, 0xd2, 0xe7, 0x1b, 0x2e, 0xd0, 0x03, 0xf9, 0xcd, 0xe7, 0xe2,
  0xc9, 0x15, 0x11, 0x0b, 0xb5, 0x3b, 0xc5, 0xdb, 0x37, 0x0e, 0x36, 0xcb,
  0x00, 0xad, 0x09, 0xc2, 0xc7, 0x04, 0x13, 0x81, 0xed, 0x2a, 0x2f, 0x90,
  0xc6, 0xbe, 0xa2, 0x2e, 0xea, 0xb8, 0xc4, 0xf8, 0xd1, 0x0d, 0x1d, 0xe6,
  0x24, 0xb3, 0xe5, 0xd9, 0x01, 0xdc, 0x44, 0xe2, 0xfa, 0x1a, 0xf8, 0xeb,
  0xcc, 0x0c, 0xd5, 0x10, 0x01, 0xd6, 0x0d, 0x0f, 0x0e, 0xc7, 0xf5, 0x12,
  0xe7, 0x19, 0xf6, 0x5d, 0x45, 0x0d, 0x13, 0x15, 0x38, 0xec, 0x02, 0xe6,
  0x1d, 0xeb, 0x3a, 0x0b, 0x0f, 0x16, 0xb8, 0x2e, 0x10, 0xc1, 0x2f, 0x29,
  0x01, 0xe2, 0x0e, 0x7e, 0x01, 0xc9, 0x21, 0xe3, 0x0a, 0xf9, 0x1f, 0x9c,
  0xde, 0x2c, 0x77, 0xf2, 0x11, 0x37, 0xa5, 0x05, 0xc5, 0xf2, 0x21, 0x08,
  0xbc, 0x3a, 0xbb, 0x3c, 0x11, 0x10, 0xbd, 0xea, 0xfe, 0x0d, 0xce, 0xf3,
  0xec, 0xa0, 0x16, 0xa9, 0x28, 0x9a, 0x21, 0xc8, 0xf0, 0xdb, 0xdd, 0x1e,
  0x0f, 0xc0, 0xe1, 0x81, 0xcb, 0xdb, 0xec, 0xc7, 0xfb, 0x04, 0x00, 0xc3,
  0x1d, 0xde, 0xcf, 0x46, 0x00, 0x08, 0x2c, 0xb2, 0xe7, 0x4f, 0xee, 0x2e,
  0xc0, 0x6c, 0x2c, 0xe3, 0xeb, 0xd5, 0xbf, 0x27, 0xe1, 0xe6, 0xc7, 0xcb,
  0xcd, 0xc2, 0xef, 0xf2, 0xf9, 0xab, 0xc1, 0x05, 0x14, 0xd7, 0x01, 0x16,
  0xe9, 0x16, 0xde, 0xcd, 0xe3, 0x0b, 0xc1, 0x06, 0xd5, 0xf2, 0xe5, 0x81,
  0xd9, 0x0b, 0x00, 0x0b, 0x02, 0xbb, 0xd7, 0xf1, 0x36, 0xb9, 0xfe, 0xfd,
  0x05, 0xd7, 0xba, 0xd4, 0xf1, 0xde, 0x0d, 0xd7, 0x18, 0xf3, 0x29, 0xf9,
  0x0c, 0x28, 0x09, 0x32, 0xfb, 0x1c, 0xa2, 0x17, 0x27, 0x04, 0xed, 0xdc,
  0xf6, 0xf1, 0xbf, 0x0f, 0x0d, 0xe4, 0x31, 0x1b, 0x07, 0xe9, 0xdb, 0xf6,
  0xdb, 0xe8, 0xe8, 0x03, 0x08, 0xed, 0xde, 0x47, 0xf5, 0xfd, 0xd8, 0xe0,
  0x0d, 0xb8, 0x21, 0xcb, 0xa1, 0x15, 0xd8, 0x18, 0x81, 0xfb, 0x03, 0xc7,
  0xfa, 0x96, 0xda, 0xe3, 0xd5, 0xd0, 0x05, 0xee, 0xbe, 0xe7, 0xae, 0xbd,
  0xe3, 0x62, 0x33, 0xcc, 0x27, 0x29, 0xe5, 0x16, 0xe2, 0x0a, 0x12, 0x09,
  0xe9, 0xdf, 0x11, 0xe9, 0xfe, 0xdb, 0xe0, 0xc3, 0xde, 0xd2, 0xf2, 0xf3,
  0xe7, 0x37, 0xdf, 0xfe, 0xd8, 0xe5, 0xf9, 0xe9, 0x0d, 0xef, 0xc3, 0xc2,
  0xca, 0x16, 0xf5, 0x2b, 0xf8, 0xfc, 0x9c, 0xde, 0xb1, 0x15, 0x0d, 0x10,
  0xf3, 0xe1, 0xdd, 0xe8, 0xcd, 0x19, 0x66, 0xc5, 0xee, 0xf8, 0xe5, 0xae,
  0x9b, 0x05, 0xc4, 0xbe, 0x03, 0x9c, 0x08, 0xc4, 0xd0, 0xf3, 0xfe, 0xca,
  0xb4, 0x09, 0xf2, 0x0c, 0xf4, 0xfc, 0xe1, 0xdb, 0x30, 0x08, 0x03, 0xfd,
  0x12, 0x1a, 0x06, 0x13, 0x12, 0x0b, 0xb4, 0xe7, 0x10, 0xe8, 0x02, 0x20,
  0xe2, 0xec, 0x0f, 0xf0, 0x01, 0x0c, 0xf9, 0x3d, 0xf8, 0x11, 0xcf, 0x05,
  0xeb, 0x3e, 0x29, 0xed, 0xf1, 0x2f, 0xcf, 0x25, 0x2b, 0xee, 0xfa, 0xe0,
  0xd8, 0xed, 0xc0, 0xe3, 0xda, 0x0a, 0xe7, 0xf1, 0xe6, 0x12, 0x11, 0xf5,
  0x0a, 0xd9, 0xce, 0xe6, 0xdd, 0xb5, 0x19, 0xd4, 0x17, 0xb8, 0xf3, 0xea,
  0xea, 0x81, 0x05, 0xa6, 0xb5, 0xd2, 0x3a, 0x04, 0xf2, 0xc5, 0x1b, 0x0b,
  0x29, 0xcc, 0xd7, 0xfc, 0xfc, 0xc9, 0xda, 0x24, 0x19, 0xee, 0xfa, 0xde,
  0x22, 0x12, 0x13, 0xc4, 0xe3, 0xd5, 0xf4, 0xf7, 0x1c, 0xe3, 0xee, 0x99,
  0xe0, 0x1a, 0xaf, 0xf9, 0x00, 0xd5, 0x17, 0xcb, 0xc4, 0xf1, 0xc9, 0xfc,
  0x24, 0xf0, 0xf2, 0xe6, 0xa7, 0xda, 0xac, 0xc7, 0xc8, 0xc6, 0xf3, 0xe7,
  0xb9, 0x00, 0x06, 0xe8, 0x33, 0x81, 0x91, 0xa2, 0x48, 0xe1, 0xc7, 0xdc,
  0xcb, 0xd1, 0x96, 0x9a, 0xec, 0xc9, 0xe5, 0xea, 0xfa, 0xe1, 0x07, 0x18,
  0x29, 0x50, 0xc4, 0x3e, 0xc2, 0x1e, 0xc7, 0xf9, 0x70, 0xd1, 0xfc, 0xf5,
  0xf4, 0xe4, 0x04, 0x0f, 0xd8, 0xef, 0x14, 0x25, 0x08, 0xe7, 0xb1, 0xa2,
  0xeb, 0xed, 0x2d, 0x23, 0x17, 0xf8, 0xab, 0x5e, 0xf6, 0x30, 0x0d, 0xce,
  0x23, 0xa8, 0x0a, 0xc0, 0xf7, 0xe2, 0x05, 0xd1, 0x99, 0xee, 0xb6, 0x1d,
  0xd1, 0xa3, 0xdc, 0xd9, 0x16, 0xdf, 0x81, 0xdd, 0x06, 0xed, 0xd8, 0xf0,
  0x19, 0xe3, 0xf7, 0xd4, 0xa5, 0xc9, 0xdc, 0x93, 0xd6, 0xcd, 0xc3, 0xfa,
  0xd5, 0x02, 0xc6, 0x13, 0xc3, 0xd6, 0x0b, 0x8d, 0xeb, 0x12, 0x08, 0xdf,
  0xec, 0xc9, 0xf1, 0xf2, 0x1c, 0x01, 0x0c, 0xe5, 0x1e, 0x8b, 0xed, 0xdf,
  0x07, 0xc5, 0x01, 0xe4, 0x26, 0x0e, 0x13, 0xfe, 0xca, 0xff, 0xff, 0x34,
  0xf7, 0x40, 0xcd, 0xf8, 0x0c, 0x01, 0xd2, 0xdb, 0xcb, 0xe0, 0xfb, 0x60,
  0x0e, 0x25, 0xf4, 0x10, 0xe1, 0x22, 0x93, 0xaf, 0xa2, 0xed, 0x27, 0xdf,
  0x60, 0xb6, 0xc0, 0xc7, 0xc9, 0xe6, 0xd1, 0xfc, 0x19, 0xd4, 0x26, 0x06,
  0x3c, 0x15, 0xc6, 0xde, 0xac, 0xe4, 0xcd, 0x18, 0xd4, 0xfc, 0xb2, 0x14,
  0x09, 0x04, 0xa4, 0xb9, 0x1a, 0xd3, 0xbe, 0xb6, 0x28, 0xbb, 0x0e, 0xf4,
  0xce, 0x2a, 0xe7, 0xcd, 0xf6, 0xf0, 0xd3, 0xae, 0xd5, 0xd4, 0xbe, 0xba,
  0xcf, 0xa0, 0xd2, 0xda, 0xd8, 0x0e, 0xa5, 0xf5, 0x37, 0xdc, 0x08, 0x1d,
  0x00, 0xd0, 0x00, 0xeb, 0xc9, 0xeb, 0xe9, 0x98, 0xe8, 0xda, 0x99, 0xf9,
  0xef, 0xdb, 0xe7, 0xae, 0xdd, 0x02, 0xf6, 0x04, 0xfe, 0xe2, 0xb4, 0xf0,
  0x0f, 0xff, 0xdb, 0xeb, 0xf1, 0xc0, 0xc1, 0xb1, 0xb3, 0xf3, 0x9e, 0xc0,
  0xed, 0x81, 0x0b, 0xae, 0x22, 0xea, 0x1a, 0xc0, 0xef, 0x08, 0xc0, 0xcd,
  0x04, 0xb5, 0x25, 0xe1, 0xbd, 0x48, 0xce, 0xfb, 0x16, 0xd1, 0xfe, 0xd6,
  0xfb, 0xe1, 0xfa, 0xe0, 0x0c, 0xc3, 0x30, 0x2f, 0xf1, 0x24, 0xf9, 0x18,
  0x12, 0x06, 0x30, 0xdb, 0x04, 0xe7, 0x11, 0xcf, 0x2d, 0xb5, 0x1b, 0xb5,
  0xa4, 0x1b, 0xc8, 0x0c, 0x20, 0xe9, 0xca, 0x0b, 0x04, 0x9e, 0x1b, 0xd1,
  0xe7, 0xd7, 0x0c, 0x22, 0x0a, 0x21, 0x27, 0x22, 0x1c, 0x21, 0x28, 0xd0,
  0x1f, 0x14, 0xfc, 0xfd, 0x2c, 0xa6, 0xf3, 0x0c, 0xc4, 0xdf, 0x81, 0x25,
  0x0a, 0x02, 0x17, 0x17, 0x15, 0xff, 0x0c, 0xd7, 0xda, 0xd9, 0x30, 0x23,
  0x20, 0xd7, 0xc4, 0xfa, 0x08, 0xb2, 0x95, 0xb3, 0xd5, 0xe8, 0xe6, 0xa0,
  0xd8, 0x1b, 0x02, 0xe1, 0x0c, 0x92, 0x13, 0x06, 0xd4, 0x2f, 0xb9, 0xc7,
  0xff, 0xd4, 0x43, 0xcb, 0xbc, 0xa3, 0xc4, 0xb2, 0xc9, 0xdc, 0x0b, 0xaa,
  0xd4, 0x99, 0xd5, 0xef, 0xb7, 0x89, 0xc4, 0xdf, 0xa6, 0x0a, 0xe3, 0x2c,
  0xa7, 0xad, 0x02, 0x02, 0xe7, 0xe3, 0xd1, 0x8e, 0x39, 0xe3, 0x34, 0x1c,
  0x05, 0xf2, 0xec, 0x4d, 0x2a, 0x35, 0xf4, 0xff, 0x92, 0xfc, 0xf1, 0x02,
  0x8c, 0x6f, 0xbc, 0x38, 0xbf, 0xa2, 0x88, 0x3e, 0xd4, 0xdc, 0xbe, 0x7f,
  0xf8, 0xf5, 0xf4, 0x5d, 0xf8, 0x2b, 0xa8, 0x12, 0xf5, 0x0c, 0x5d, 0x98,
  0x4e, 0xbf, 0xb1, 0x32, 0xf2, 0xea, 0x0a, 0x09, 0xe4, 0xff, 0x2c, 0xfb,
  0xff, 0xfc, 0x00, 0xf2, 0xcb, 0xcb, 0xfb, 0x2b, 0x0f, 0x0a, 0x00, 0x25,
  0xfc, 0x21, 0xec, 0xca, 0xd0, 0xe7, 0x23, 0xac, 0x32, 0xc0, 0xc4, 0xee,
  0xa5, 0xf8, 0x02, 0xf6, 0xf9, 0xe3, 0xca, 0xe0, 0x01, 0xd7, 0xeb, 0xe9,
  0xf8, 0xcf, 0xfe, 0xba, 0xb8, 0xca, 0xee, 0x81, 0xf6, 0xf0, 0x27, 0x08,
  0xeb, 0xcb, 0xd0, 0x1e, 0xe1, 0xec, 0x10, 0xeb, 0x2f, 0x36, 0xe8, 0xed,
  0x2b, 0xdb, 0xfe, 0x08, 0xe9, 0xe4, 0x28, 0x10, 0xe4, 0x24, 0xbd, 0x25,
  0x26, 0xff, 0xee, 0x02, 0x0e, 0xb2, 0xf0, 0x40, 0x14, 0xf6, 0x14, 0x03,
  0x38, 0xe2, 0xd3, 0x1c, 0xb1, 0x1e, 0x8c, 0x2c, 0x3a, 0xf9, 0xe9, 0x25,
  0xfa, 0xd9, 0x2a, 0xde, 0x3b, 0xa0, 0xe6, 0xf0, 0xfd, 0xfc, 0x2c, 0x0f,
  0xf0, 0x01, 0xed, 0x0b, 0xfe, 0x0e, 0xff, 0x32, 0xf6, 0xed, 0x81, 0xe2,
  0x1d, 0xcc, 0x07, 0x03, 0xc4, 0x9a, 0x27, 0xf9, 0x27, 0xf6, 0x0d, 0xdb,
  0xec, 0xd6, 0x8a, 0xd3, 0x07, 0xf9, 0xeb, 0xca, 0xf6, 0xcf, 0x37, 0x48,
  0xee, 0xc2, 0x25, 0x05, 0xeb, 0x04, 0xd2, 0x22, 0x37, 0x19, 0x03, 0xea,
  0x2d, 0x16, 0xdf, 0xe0, 0x08, 0xd9, 0x10, 0xfb, 0xfd, 0xed, 0xc8, 0x29,
  0x37, 0x01, 0xd8, 0x16, 0xfd, 0xd4, 0x14, 0x28, 0x11, 0xf8, 0x08, 0x1b,
  0x6f, 0xd1, 0xbe, 0x1d, 0x9d, 0x47, 0x23, 0xba, 0xf6, 0xa7, 0x15, 0x9f,
  0x2a, 0xdd, 0xb5, 0x04, 0xf9, 0xf6, 0xdf, 0xde, 0xe0, 0xd1, 0x92, 0xa2,
  0xc9, 0xbc, 0xdd, 0xa8, 0xbd, 0xac, 0xf0, 0xef, 0xf7, 0x03, 0x22, 0x8e,
  0xbd, 0xe5, 0x0c, 0xe7, 0x47, 0x12, 0x9f, 0xa6, 0x05, 0xc8, 0xa5, 0xcf,
  0xd2, 0x8a, 0xa8, 0xb8, 0xdd, 0xd5, 0x1b, 0x14, 0x4c, 0x91, 0xd2, 0x1e,
  0xd9, 0x91, 0xb5, 0x1c, 0xa7, 0xfe, 0xd1, 0x22, 0xe3, 0x2c, 0x35, 0x29,
  0xe6, 0xd4, 0x00, 0xf9, 0x0a, 0xaf, 0xe0, 0x81, 0x21, 0xe6, 0xb1, 0xaa,
  0xa8, 0x2a, 0x34, 0xd0, 0x38, 0xa4, 0xa1, 0xee, 0x1b, 0x09, 0x24, 0xaa,
  0xd9, 0x9b, 0xc6, 0xaa, 0xd4, 0xd7, 0xf0, 0x2b, 0xe9, 0x84, 0xe2, 0xce,
  0xf9, 0xea, 0xea, 0x9f, 0xe9, 0xac, 0x09, 0xf8, 0xda, 0xad, 0xdc, 0xf4,
  0xd5, 0x92, 0x08, 0x30, 0x22, 0xf6, 0xb5, 0xa6, 0x1a, 0xd6, 0xcb, 0xdb,
  0x3c, 0x29, 0x6b, 0x2c, 0xf8, 0xfe, 0x9b, 0x04, 0x27, 0xb0, 0x07, 0xf8,
  0xe4, 0x66, 0xf8, 0xc5, 0x1f, 0xc5, 0x1a, 0xd0, 0x30, 0xfa, 0xff, 0xe6,
  0xf8, 0x81, 0x2b, 0xe9, 0x01, 0xb0, 0x31, 0x03, 0xe6, 0xb5, 0xbe, 0xd3,
  0x6e, 0xb8, 0xfa, 0xd1, 0x12, 0xc9, 0x32, 0x21, 0xaa, 0x10, 0x72, 0xea,
  0xdf, 0x2f, 0x42, 0x3c, 0x08, 0x88, 0x60, 0xce, 0xe5, 0x30, 0xeb, 0x36,
  0xdb, 0x1e, 0x13, 0x1f, 0xbe, 0xfd, 0xc9, 0x2e, 0x48, 0xaa, 0x99, 0xff,
  0x0b, 0xd6, 0xdc, 0xee, 0x0f, 0xc5, 0xd7, 0xc9, 0xeb, 0xec, 0xd0, 0xe2,
  0x15, 0xd1, 0x50, 0xe8, 0xec, 0x19, 0xdb, 0x31, 0xd5, 0x06, 0x01, 0x2e,
  0x4c, 0xdc, 0xef, 0xe1, 0xc3, 0xd9, 0xff, 0x03, 0xfa, 0x1e, 0x0d, 0xd5,
  0xe1, 0xdf, 0x00, 0xe3, 0xdf, 0xd6, 0xd6, 0x07, 0x04, 0x0d, 0xe1, 0x50,
  0xf4, 0xcb, 0xe8, 0x02, 0x1d, 0xd3, 0x02, 0x81, 0x17, 0xbe, 0xf7, 0xc0,
  0xdd, 0xd2, 0xf9, 0x11, 0x22, 0xe6, 0x33, 0xff, 0xff, 0xf1, 0xc4, 0x10,
  0x24, 0x0c, 0xff, 0x20, 0xf6, 0xd5, 0xe1, 0xec, 0x0a, 0x24, 0x27, 0x38,
  0x28, 0x23, 0xd2, 0x2e, 0x41, 0xd3, 0xfe, 0xb3, 0x03, 0xc0, 0xd8, 0x81,
  0xe9, 0x30, 0xfc, 0xa7, 0xe5, 0x1d, 0xd0, 0x14, 0xd4, 0xce, 0xa6, 0xab,
  0x28, 0xc4, 0x02, 0x42, 0x06, 0xb6, 0xf0, 0xd6, 0x25, 0x03, 0x18, 0x1f,
  0x37, 0xcf, 0x0d, 0x16, 0x40, 0xdc, 0x32, 0xd8, 0xf3, 0xd0, 0xeb, 0x06,
  0x3c, 0xf3, 0x45, 0xbd, 0xf6, 0xec, 0xf1, 0xc3, 0x09, 0xee, 0xb2, 0xf2,
  0x21, 0x32, 0xd2, 0xee, 0xf3, 0x0a, 0xa0, 0xf1, 0x19, 0x2e, 0x4c, 0xd5,
  0x29, 0x44, 0x06, 0xbb, 0x31, 0xd0, 0xe6, 0x93, 0xda, 0x01, 0xb0, 0x19,
  0x03, 0xd1, 0x34, 0xb3, 0xf5, 0xf8, 0x27, 0xaf, 0x05, 0xe3, 0x09, 0x06,
  0xae, 0x1c, 0xe7, 0x0e, 0x00, 0xd9, 0x10, 0x09, 0x1b, 0x34, 0xcc, 0x4d,
  0x06, 0x06, 0xd8, 0x20, 0xf2, 0xe1, 0x0d, 0xbf, 0xa1, 0x08, 0xd7, 0xa6,
  0xff, 0x20, 0xd9, 0xea, 0xd2, 0x9e, 0xa7, 0xea, 0xc6, 0xac, 0x3a, 0xda,
  0x1a, 0xe3, 0x55, 0xfb, 0xe2, 0xc3, 0x3f, 0x8f, 0x15, 0x50, 0x24, 0xd8,
  0xd1, 0x25, 0x2f, 0x00, 0xea, 0xb6, 0x15, 0xb6, 0x11, 0xed, 0xe6, 0xb2,
  0x0a, 0x05, 0xde, 0xfb, 0x07, 0x05, 0xf8, 0xe3, 0x0b, 0x23, 0xfc, 0x07,
  0x2e, 0xe9, 0xee, 0xf9, 0x25, 0x00, 0x07, 0x1b, 0x52, 0x19, 0x92, 0xf0,
  0xf7, 0x36, 0x2d, 0x2d, 0xf2, 0x11, 0x7f, 0x16, 0x4a, 0x20, 0xf8, 0xf3,
  0x1a, 0x1c, 0xc9, 0x23, 0x26, 0x0d, 0x19, 0xf7, 0x4b, 0x03, 0xfe, 0xcf,
  0xf7, 0xd3, 0xff, 0xed, 0xfe, 0x2c, 0x11, 0xcb, 0xe9, 0xb1, 0xe4, 0xd4,
  0x07, 0x07, 0x08, 0x81, 0xec, 0x15, 0x12, 0x38, 0xd0, 0x36, 0xd6, 0x0e,
  0x43, 0xe4, 0xe4, 0x96, 0xa5, 0xca, 0xfa, 0xfe, 0xfe, 0xf5, 0xf7, 0xbd,
  0xc3, 0x2c, 0xe4, 0x22, 0xe6, 0xc7, 0xc5, 0xe2, 0xe2, 0x93, 0x08, 0xee,
  0xd1, 0xef, 0x1d, 0x21, 0xe6, 0x06, 0x26, 0xd9, 0x2a, 0x3c, 0x3d, 0xc6,
  0xe0, 0x02, 0xfb, 0xa7, 0x13, 0x18, 0x1f, 0xcf, 0xe6, 0x17, 0xd7, 0x00,
  0x29, 0xa8, 0xc7, 0xf1, 0xef, 0xa9, 0xec, 0x08, 0x04, 0xab, 0x1b, 0x41,
  0x1f, 0x0b, 0xb9, 0x14, 0x2a, 0x08, 0x50, 0x17, 0x1a, 0xe4, 0xfb, 0x1a,
  0x4d, 0xf2, 0x67, 0xb2, 0xc3, 0x12, 0xd3, 0xf0, 0x4b, 0xd4, 0xff, 0x15,
  0x25, 0x25, 0x19, 0x2f, 0xbb, 0x81, 0x42, 0x21, 0x12, 0x29, 0xca, 0xd8,
  0xc5, 0xfa, 0xc3, 0xbb, 0x19, 0xd9, 0xdd, 0xe6, 0x52, 0xc1, 0x03, 0x4d,
  0xe1, 0x9b, 0xab, 0xfa, 0xc0, 0x2f, 0x00, 0xd4, 0x05, 0xc3, 0x3a, 0xb4,
  0xdc, 0x15, 0x8c, 0x46, 0xc0, 0xb4, 0x9d, 0x03, 0xcc, 0x8b, 0xcb, 0xd7,
  0xc2, 0xd0, 0x48, 0x0c, 0xec, 0x33, 0xff, 0x0b, 0xcd, 0xf9, 0x38, 0xc4,
  0x9d, 0xd2, 0xd4, 0xaf, 0xf8, 0x37, 0x8e, 0xe3, 0x93, 0x9e, 0xce, 0xaf,
  0xfb, 0xd4, 0x05, 0xc1, 0xd8, 0x09, 0x27, 0x0f, 0xd3, 0x15, 0xce, 0x21,
  0xf6, 0xb2, 0xfc, 0xea, 0xea, 0x41, 0xa3, 0x07, 0x27, 0xd2, 0xe6, 0xd3,
  0xd5, 0x2a, 0x03, 0xd1, 0xc5, 0xf3, 0x1f, 0x03, 0x1a, 0xd8, 0x3b, 0x2a,
  0xe8, 0xa0, 0xe4, 0x06, 0x26, 0xb0, 0xe3, 0xbd, 0xee, 0xea, 0xdb, 0x81,
  0xdd, 0xff, 0x41, 0xc0, 0xea, 0xc3, 0xfd, 0x5a, 0xd1, 0xd5, 0xcb, 0xa0,
  0xe9, 0xf0, 0xc6, 0xaf, 0xc3, 0x34, 0x4c, 0x8e, 0xb1, 0x3a, 0x30, 0x17,
  0xe0, 0x1c, 0xbf, 0x18, 0x14, 0x08, 0xfe, 0x11, 0x18, 0xd2, 0xd8, 0xe4,
  0xa5, 0xfb, 0x14, 0xfd, 0x10, 0xff, 0x0c, 0xcc, 0xb0, 0xee, 0xdb, 0x11,
  0xcf, 0xb8, 0xd9, 0xdd, 0xfd, 0x26, 0x09, 0x03, 0x0d, 0xd9, 0xed, 0x0a,
  0x3d, 0xe3, 0xe9, 0x17, 0x04, 0xfe, 0xe9, 0x10, 0xe2, 0xe5, 0x1a, 0x07,
  0xfe, 0xf7, 0x1a, 0x2f, 0xff, 0x1e, 0x19, 0x03, 0x09, 0xf2, 0xfb, 0x23,
  0xc9, 0xd7, 0x04, 0xd5, 0x05, 0xf4, 0x0c, 0xeb, 0xd6, 0x14, 0xfc, 0xfe,
  0xcf, 0xe2, 0x3d, 0xe5, 0xce, 0xde, 0x09, 0xdd, 0xfe, 0xfa, 0xda, 0xeb,
  0xcd, 0xb3, 0xb9, 0x07, 0xe9, 0xd2, 0xff, 0xdd, 0xdf, 0xe7, 0xc5, 0x2b,
  0x08, 0x0e, 0xf4, 0xf0, 0xd3, 0x1f, 0xe9, 0xd9, 0xe8, 0xe5, 0xe4, 0xe8,
  0x11, 0x62, 0xc8, 0x1a, 0xf6, 0x01, 0x81, 0xd7, 0xea, 0xe7, 0xd6, 0x05,
  0xf5, 0x25, 0x15, 0x24, 0xea, 0xfe, 0xc8, 0xf3, 0xb6, 0xe1, 0xe7, 0x27,
  0xce, 0xcb, 0x00, 0x17, 0x0d, 0x07, 0xf2, 0x2a, 0x3c, 0x04, 0xfe, 0x20,
  0x0b, 0xea, 0xb2, 0xe2, 0x2b, 0x5b, 0x09, 0xfa, 0x23, 0x26, 0xe3, 0xe5,
  0xe7, 0xda, 0xeb, 0x1f, 0xae, 0xe6, 0x16, 0xdd, 0x3e, 0xd6, 0xe5, 0x19,
  0x38, 0xbd, 0xd1, 0xc3, 0xdb, 0xd1, 0x33, 0xe0, 0x1f, 0x26, 0xf1, 0xf2,
  0xe4, 0x11, 0xdd, 0xf6, 0xd9, 0x9b, 0xf7, 0xa2, 0xfa, 0x35, 0x33, 0xaa,
  0x2f, 0xde, 0xbf, 0xe1, 0x2a, 0x81, 0xc7, 0xdb, 0x00, 0x1d, 0xcf, 0x07,
  0xc5, 0xbc, 0x08, 0x15, 0x1a, 0xf9, 0x69, 0x97, 0xc2, 0xd8, 0x07, 0xe2,
  0xd0, 0x2f, 0xe3, 0x30, 0x14, 0xd9, 0x00, 0x24, 0x31, 0xbb, 0x41, 0xd0,
  0xcb, 0xf8, 0x1c, 0x17, 0x54, 0xfa, 0xe2, 0xe9, 0xe8, 0xf8, 0x26, 0xa5,
  0x16, 0xe2, 0xcd, 0x11, 0xe0, 0xda, 0x02, 0xe7, 0xde, 0xdb, 0xe9, 0xcc,
  0xe8, 0xee, 0x3d, 0x1a, 0x7f, 0xdf, 0x14, 0xf7, 0xec, 0x40, 0xf2, 0x15,
  0xd9, 0xeb, 0x09, 0xde, 0x07, 0xd1, 0xe4, 0xc9, 0xde, 0xc2, 0xe0, 0xd0,
  0xd4, 0xe1, 0xfa, 0xf5, 0xe3, 0xce, 0x24, 0x0b, 0x1e, 0x31, 0x0f, 0x09,
  0xf0, 0xd3, 0xe3, 0x8e, 0xf7, 0x2c, 0x1e, 0xbb, 0xde, 0xe7, 0x27, 0xdf,
  0xfb, 0x1d, 0x1c, 0xc4, 0xfc, 0xd4, 0xcd, 0xde, 0x05, 0xef, 0xf8, 0xe3,
  0x10, 0x0a, 0xe5, 0xf6, 0xf4, 0x81, 0xce, 0x05, 0x04, 0xf9, 0x38, 0x2e,
  0x05, 0x36, 0x1d, 0x15, 0xcf, 0xe7, 0x4a, 0xbb, 0xb0, 0x19, 0xfa, 0xc4,
  0xe1, 0x3a, 0xb0, 0x2a, 0xc9, 0xdb, 0xe1, 0x05, 0xf0, 0xc7, 0x19, 0xba,
  0xf7, 0x36, 0xaf, 0x39, 0xd4, 0x09, 0x10, 0xf6, 0x0d, 0x44, 0xdc, 0xb5,
  0x83, 0x01, 0xf7, 0x0a, 0xf2, 0x19, 0xe7, 0xd8, 0x04, 0x0d, 0xae, 0xc6,
  0x99, 0xb6, 0xe5, 0xde, 0xd7, 0x11, 0x08, 0x00, 0xcc, 0xea, 0xc0, 0x3f,
  0x08, 0xcd, 0x88, 0xe6, 0xc3, 0xbb, 0xaf, 0xfd, 0x3c, 0xe5, 0xa8, 0x0a,
  0xee, 0x25, 0xba, 0x0a, 0xfb, 0xcb, 0xec, 0x2a, 0x3f, 0x34, 0xaa, 0x05,
  0xe0, 0x01, 0xc7, 0xcb, 0xd6, 0xe6, 0xff, 0xff, 0x04, 0x00, 0x00, 0x00,
  0x00, 0x06, 0x00, 0x00, 0xfa, 0xba, 0x37, 0x53, 0x00, 0xf3, 0xcc, 0xb2,
  0x0a, 0x3c, 0x8d, 0x06, 0xfc, 0x42, 0xe4, 0xd1, 0xee, 0xe3, 0x05, 0x24,
  0xc5, 0xe1, 0x87, 0xae, 0x00, 0x01, 0x96, 0x1c, 0x3c, 0x06, 0x29, 0x01,
  0xeb, 0xb3, 0x9d, 0x30, 0xb8, 0x91, 0xa5, 0x81, 0xd8, 0x1a, 0xd5, 0xfc,
  0x0b, 0x0a, 0x1c, 0xbd, 0xc6, 0xfc, 0xb6, 0x81, 0xec, 0xb9, 0xc6, 0xd8,
  0xa8, 0x29, 0x0c, 0xdd, 0xb0, 0x24, 0xca, 0xe0, 0xfd, 0x42, 0x23, 0x22,
  0xa9, 0x09, 0xf1, 0x24, 0x3d, 0x30, 0xf7, 0x02, 0xc6, 0x5c, 0xff, 0x02,
  0x36, 0x2b, 0xff, 0xe9, 0xf3, 0xd0, 0x09, 0x01, 0x02, 0xd8, 0xf0, 0xf5,
  0xb5, 0x09, 0xd1, 0x97, 0xd6, 0xf4, 0x0d, 0x07, 0xdf, 0xd9, 0x05, 0xb0,
  0xf9, 0x00, 0xd8, 0xf1, 0x1c, 0x2b, 0xfe, 0x0a, 0xe2, 0x1d, 0xd1, 0xad,
  0xce, 0x05, 0x07, 0x20, 0xee, 0x11, 0xed, 0x00, 0xb9, 0x13, 0xc8, 0x81,
  0x18, 0x19, 0x4c, 0x15, 0x9b, 0xc4, 0xc7, 0x2d, 0x00, 0x19, 0xe1, 0x0c,
  0x9b, 0xcb, 0xfa, 0xa6, 0x4e, 0x17, 0xe9, 0x81, 0x23, 0xfb, 0xf4, 0xc6,
  0x24, 0xef, 0xec, 0xa4, 0xcf, 0x07, 0x25, 0x04, 0xe7, 0xef, 0xcf, 0x03,
  0x09, 0x4a, 0x0c, 0x1a, 0xca, 0xaa, 0x56, 0xd6, 0x11, 0xde, 0x90, 0x09,
  0xad, 0xe0, 0x09, 0x03, 0xdc, 0xf7, 0xe2, 0xc7, 0x44, 0xe6, 0xdf, 0xed,
  0xfc, 0x42, 0xc2, 0x01, 0xde, 0x08, 0x4e, 0xc1, 0xee, 0xb6, 0xd3, 0xd4,
  0x48, 0x23, 0xaf, 0xef, 0xf0, 0x0a, 0xe3, 0x2b, 0x0a, 0xf0, 0xf1, 0xac,
  0xa1, 0x20, 0xf7, 0xfb, 0x03, 0x81, 0x33, 0x0b, 0xa6, 0xc2, 0xb4, 0xe6,
  0x0c, 0xf4, 0xe4, 0xfa, 0x8b, 0x2d, 0x42, 0xf9, 0xca, 0xef, 0xca, 0xe4,
  0xe1, 0x5d, 0x0f, 0xca, 0x04, 0xcb, 0xf4, 0x11, 0x0c, 0x06, 0x01, 0xf2,
  0x1d, 0xec, 0x07, 0xe8, 0x03, 0x00, 0x05, 0x03, 0xdb, 0x3a, 0xc4, 0x91,
  0xef, 0x15, 0x07, 0x20, 0x00, 0xb1, 0x20, 0x81, 0xb5, 0x1f, 0x07, 0xa3,
  0xfb, 0x64, 0x19, 0xb6, 0x10, 0x27, 0x0e, 0x14, 0xdf, 0xce, 0x48, 0xe4,
  0xb3, 0xcd, 0xf2, 0xed, 0x27, 0xf6, 0xf6, 0x1d, 0x07, 0xea, 0x1d, 0xe2,
  0xc4, 0xb0, 0xfa, 0xe4, 0x1c, 0xd7, 0xe7, 0x3c, 0x23, 0xaa, 0x05, 0x1f,
  0xed, 0x1a, 0xf6, 0x08, 0xd9, 0x1a, 0x81, 0x0b, 0x11, 0x14, 0xd2, 0x1f,
  0xcd, 0x0f, 0xe6, 0xa7, 0xa8, 0xa6, 0xc1, 0xf9, 0xd8, 0x01, 0x57, 0xa1,
  0x8b, 0x19, 0xe3, 0xbc, 0x1e, 0xe9, 0x29, 0x12, 0x03, 0x14, 0x2c, 0xe5,
  0x4a, 0x37, 0xf9, 0x1f, 0x22, 0x17, 0x06, 0x0d, 0xff, 0x05, 0xc8, 0xd0,
  0x3a, 0x0c, 0x2d, 0x29, 0x28, 0xe4, 0x08, 0x83, 0xf4, 0x31, 0x12, 0xe4,
  0x29, 0x06, 0xb2, 0x0f, 0x1b, 0xfb, 0x14, 0x15, 0x9a, 0xd0, 0x11, 0xea,
  0x00, 0x81, 0xe9, 0x09, 0x8e, 0xfc, 0x81, 0x86, 0xa7, 0x87, 0xc9, 0x05,
  0x02, 0xef, 0xdb, 0xbf, 0x00, 0x40, 0xf0, 0xee, 0xd6, 0x1c, 0x44, 0xa5,
  0xd2, 0xe6, 0xc1, 0x0e, 0xfe, 0x21, 0xd6, 0xf6, 0x03, 0x24, 0xe5, 0xee,
  0xd6, 0xff, 0xeb, 0xfb, 0xe9, 0x00, 0x37, 0xd9, 0xab, 0x38, 0x49, 0x23,
  0xe2, 0xcc, 0xdd, 0x26, 0x4f, 0xa6, 0x93, 0xf3, 0xd2, 0x16, 0xd1, 0xf8,
  0x81, 0xed, 0xd0, 0xf9, 0x14, 0x98, 0xb5, 0x1a, 0x7a, 0xdc, 0xaa, 0x22,
  0x28, 0xfe, 0xf3, 0x02, 0x84, 0xef, 0xca, 0x1a, 0xdd, 0x85, 0xd6, 0x1a,
  0x18, 0xf2, 0x9b, 0xc7, 0xbe, 0x10, 0xa1, 0x24, 0xd8, 0xbf, 0x50, 0x0b,
  0xbc, 0xca, 0x23, 0x88, 0xda, 0x1e, 0xf3, 0x1d, 0xc0, 0x01, 0xf1, 0x19,
  0xb3, 0xdb, 0xce, 0xd5, 0xde, 0x97, 0xd1, 0xb8, 0xaf, 0xb7, 0x1a, 0x92,
  0x8b, 0xb7, 0xcd, 0xe3, 0xec, 0x1c, 0x81, 0xab, 0x33, 0x15, 0x0e, 0xf7,
  0xc8, 0x41, 0xe8, 0x9c, 0xaa, 0x94, 0x97, 0x20, 0x0d, 0x2f, 0xb8, 0x00,
  0xe3, 0x08, 0x2f, 0xb0, 0xeb, 0xed, 0x61, 0xea, 0x95, 0x9c, 0xfb, 0xfc,
  0x38, 0x2b, 0xe1, 0xd6, 0x11, 0xe6, 0x16, 0x54, 0xbe, 0xe8, 0x2c, 0x0a,
  0x3b, 0x0e, 0xea, 0xeb, 0xe7, 0xf5, 0xa8, 0x81, 0x0a, 0x07, 0x02, 0xe7,
  0x3b, 0x21, 0xa1, 0xe8, 0x20, 0xff, 0x71, 0x03, 0xf5, 0x9a, 0xdd, 0x9e,
  0xc7, 0x21, 0xad, 0x4c, 0xe2, 0xe5, 0xf1, 0xba, 0x2e, 0xe3, 0xd2, 0xb6,
  0x09, 0x01, 0xd2, 0xea, 0xb6, 0x0b, 0x4e, 0x54, 0x95, 0xbe, 0xad, 0x0d,
  0x09, 0x0c, 0x42, 0xa7, 0xd4, 0x96, 0x03, 0xb6, 0x0d, 0xe7, 0xa5, 0x0a,
  0x81, 0x9d, 0xe3, 0x0d, 0xf1, 0x11, 0xfc, 0xc6, 0x02, 0xd8, 0xab, 0x29,
  0x2a, 0x53, 0xda, 0x3b, 0xce, 0xf3, 0x39, 0xf5, 0xb9, 0xbe, 0xf2, 0xd9,
  0x03, 0x1c, 0x84, 0x35, 0xdf, 0xe0, 0x10, 0xd0, 0x10, 0x29, 0xe3, 0x05,
  0xd1, 0xbe, 0xfe, 0x1c, 0x36, 0xdf, 0xbd, 0x14, 0xd1, 0xfb, 0x0b, 0xe1,
  0x30, 0x06, 0x05, 0x20, 0xab, 0x81, 0x98, 0x09, 0xb7, 0x18, 0xcb, 0x1e,
  0xd8, 0xcc, 0x1c, 0xf9, 0x3c, 0xfe, 0xd8, 0x0e, 0x28, 0x27, 0x25, 0x11,
  0xed, 0xeb, 0x27, 0x32, 0xe3, 0xeb, 0xe7, 0x11, 0xc6, 0xab, 0x81, 0xe5,
  0xe4, 0xb7, 0xd3, 0xff, 0xae, 0xe5, 0xc1, 0x13, 0xd7, 0xf1, 0xe1, 0x18,
  0x3b, 0xe6, 0xe8, 0xdc, 0xca, 0xd8, 0x06, 0xf2, 0xe0, 0x03, 0x36, 0xb6,
  0xc8, 0xfb, 0x02, 0x0b, 0xad, 0xe9, 0x12, 0x2c, 0xc0, 0xb6, 0xa2, 0x9a,
  0x27, 0x1b, 0xdc, 0x22, 0xf2, 0xcc, 0x0a, 0x05, 0xf3, 0xd2, 0xf9, 0x02,
  0xe6, 0xe6, 0xd5, 0x81, 0xfc, 0xee, 0x0a, 0xcc, 0xe8, 0x16, 0x50, 0xc6,
  0xf1, 0x21, 0xf0, 0xc5, 0x29, 0x0a, 0xee, 0x0b, 0x20, 0xde, 0x0d, 0xde,
  0xd3, 0x00, 0x29, 0xdc, 0xd5, 0x9b, 0xfb, 0x17, 0xa5, 0xc8, 0xa3, 0x81,
  0xea, 0xcf, 0xdc, 0x0e, 0x19, 0x8a, 0x2a, 0xdb, 0xd6, 0xf0, 0xf5, 0x29,
  0x02, 0xfc, 0xf0, 0xaf, 0x14, 0x0b, 0xfb, 0x28, 0x0c, 0xdd, 0x41, 0xf4,
  0xbf, 0x76, 0xc6, 0xf3, 0x3d, 0xf4, 0x0c, 0xed, 0x3f, 0x17, 0x08, 0xe5,
  0xe7, 0x71, 0x01, 0xf2, 0x3f, 0xc1, 0xd9, 0xeb, 0x9e, 0x81, 0xa4, 0xee,
  0xb6, 0x0b, 0x42, 0xf4, 0xe5, 0xb3, 0xc4, 0xb7, 0x14, 0xb8, 0xf7, 0xd0,
  0x5b, 0x4f, 0x29, 0xc5, 0x3f, 0x00, 0x50, 0x08, 0x09, 0xfc, 0x38, 0xec,
  0x07, 0x15, 0xc9, 0xb1, 0x1d, 0xf9, 0xdf, 0x29, 0xaf, 0xba, 0x6b, 0xce,
  0xea, 0xc1, 0x5e, 0xea, 0x23, 0xeb, 0x81, 0xd6, 0x26, 0x3c, 0x57, 0xef,
  0xd0, 0xaf, 0x0e, 0xcb, 0x3a, 0xcb, 0xa9, 0x38, 0xa6, 0x0f, 0x35, 0x0a,
  0xb6, 0xaa, 0xd7, 0xdd, 0xf9, 0x0c, 0xcb, 0xca, 0x13, 0x5d, 0xc2, 0x45,
  0x26, 0x45, 0x13, 0xcf, 0x0c, 0xc7, 0xdb, 0x33, 0xdc, 0x0b, 0x4e, 0x1e,
  0xc4, 0xfd, 0x83, 0x91, 0x30, 0x20, 0x27, 0x07, 0xe7, 0xea, 0x88, 0x11,
  0x2a, 0x39, 0xe6, 0x43, 0xae, 0xe4, 0x3c, 0xf9, 0xf7, 0xf2, 0xae, 0xe5,
  0x24, 0xe6, 0x09, 0xa8, 0x4a, 0xcc, 0xd4, 0xf6, 0xe4, 0x25, 0x35, 0x2a,
  0x8d, 0x45, 0xf0, 0x8c, 0xf1, 0x0d, 0x3e, 0xf0, 0xce, 0x81, 0x30, 0xc9,
  0xe6, 0x50, 0xd0, 0xea, 0xab, 0xf9, 0x1c, 0xb4, 0xfa, 0xe1, 0xf8, 0xca,
  0xd8, 0xd4, 0xd5, 0xe9, 0x11, 0xe0, 0x0b, 0xc4, 0xcd, 0xd7, 0xc3, 0xb9,
  0xf6, 0x14, 0xd0, 0xba, 0x81, 0xcb, 0x13, 0x90, 0xfb, 0xab, 0xef, 0xd3,
  0xec, 0x0c, 0xd2, 0xc6, 0x92, 0xd6, 0xe7, 0x18, 0xb2, 0xca, 0xcf, 0xab,
  0xcf, 0x93, 0xb5, 0x9e, 0xb0, 0xda, 0xab, 0xf1, 0x1a, 0x3e, 0x47, 0xda,
  0x1d, 0xa6, 0x57, 0x88, 0x07, 0xec, 0xe7, 0x00, 0x3b, 0x52, 0x84, 0xe5,
  0x27, 0xfd, 0x04, 0x2d, 0xd0, 0x81, 0x20, 0x91, 0x17, 0x46, 0xe1, 0x30,
  0x5c, 0x56, 0x1b, 0xd6, 0xc8, 0xc0, 0xbc, 0x2c, 0xc9, 0x25, 0x5e, 0x37,
  0x84, 0xe8, 0xed, 0xfc, 0xac, 0x26, 0xfa, 0xc6, 0xd1, 0x10, 0xeb, 0x32,
  0x17, 0x04, 0xd3, 0x1d, 0xf1, 0x4d, 0xca, 0xe5, 0xe4, 0x1a, 0x3a, 0xb3,
  0xc1, 0xf4, 0x0e, 0x24, 0xc5, 0x4c, 0xce, 0x29, 0x8c, 0xd7, 0x89, 0xc7,
  0xf2, 0x01, 0x13, 0x0e, 0xfb, 0x1d, 0x0a, 0xc7, 0x81, 0x41, 0xf5, 0x0f,
  0x21, 0xb5, 0xb0, 0x11, 0xc1, 0xc1, 0xd5, 0x2e, 0x04, 0x37, 0x18, 0xfc,
  0xe1, 0xbc, 0xea, 0x8f, 0x41, 0x03, 0x2a, 0x10, 0xe1, 0xaa, 0xad, 0xfe,
  0x08, 0x20, 0x0d, 0xf6, 0xda, 0x9c, 0xe1, 0xc9, 0x06, 0xc2, 0x26, 0xff,
  0x29, 0x81, 0xe2, 0x55, 0xdb, 0x0c, 0xcf, 0xfc, 0x10, 0xd1, 0xad, 0xe3,
  0x4c, 0xe4, 0x1a, 0xd9, 0x24, 0x09, 0xe4, 0xf1, 0xaa, 0xcf, 0xc7, 0xff,
  0xcf, 0xf5, 0x2d, 0xff, 0x0a, 0x81, 0x3c, 0xf6, 0xe4, 0xb9, 0x5a, 0xfa,
  0x26, 0xcf, 0xea, 0xda, 0x21, 0xf1, 0xc4, 0x14, 0xf9, 0xe0, 0xfe, 0x17,
  0xb5, 0xb7, 0xdc, 0x3e, 0x08, 0xf4, 0x48, 0xc2, 0x33, 0xd5, 0x0c, 0x2a,
  0x18, 0xda, 0xf8, 0x3d, 0x2d, 0xe0, 0x05, 0x1c, 0xc4, 0xa2, 0x97, 0xf1,
  0x07, 0x07, 0xf0, 0x24, 0xe4, 0xdd, 0x03, 0x14, 0xda, 0xa4, 0x32, 0xf5,
  0x23, 0xf5, 0xf4, 0xcb, 0xeb, 0x08, 0xbc, 0x06, 0x10, 0x05, 0xfd, 0x2d,
  0xc9, 0xda, 0xe3, 0x09, 0x15, 0x28, 0xec, 0xbb, 0xad, 0xba, 0xf4, 0xa2,
  0x29, 0x00, 0x81, 0x18, 0x81, 0xa6, 0x45, 0xe6, 0xa9, 0x10, 0xd9, 0x8c,
  0x1c, 0xef, 0xb7, 0x4b, 0xf8, 0xe1, 0x27, 0xee, 0x9f, 0xaa, 0x35, 0x35,
  0x0d, 0xff, 0x9e, 0x9a, 0x65, 0x23, 0xf5, 0x35, 0xef, 0xe7, 0x25, 0x92,
  0x22, 0x4f, 0xec, 0xef, 0xf1, 0xf7, 0xf3, 0x10, 0x3b, 0xfc, 0xed, 0x1d,
  0x82, 0x34, 0x32, 0xad, 0xd7, 0xd5, 0xd8, 0xd9, 0x20, 0x05, 0x07, 0xed,
  0x2b, 0xad, 0x03, 0xe0, 0xd7, 0x03, 0x26, 0xee, 0xea, 0xee, 0x15, 0xe4,
  0x09, 0xe5, 0x0d, 0x08, 0x0b, 0x24, 0xf9, 0x09, 0xc5, 0x2c, 0xe8, 0xe3,
  0x93, 0xaa, 0x51, 0xdc, 0xf2, 0x2e, 0x32, 0x81, 0x0a, 0x12, 0x13, 0xfe,
  0xff, 0xda, 0xd6, 0xc2, 0xc9, 0x9f, 0x09, 0x24, 0xe8, 0xf5, 0x10, 0x81,
  0xff, 0xd9, 0xf2, 0xf4, 0x1a, 0xa0, 0xfc, 0x0a, 0xd6, 0xc0, 0xee, 0x00,
  0x11, 0x05, 0xe5, 0x86, 0x36, 0xa6, 0xff, 0xab, 0xe6, 0x00, 0x2b, 0xcd,
  0x9e, 0xeb, 0xd9, 0xf1, 0x1a, 0x03, 0xd6, 0x07, 0x1b, 0xe3, 0x1f, 0xd2,
  0x1d, 0x33, 0x21, 0xee, 0x3c, 0x18, 0x00, 0x0b, 0x99, 0xb1, 0xce, 0x23,
  0xb7, 0xfd, 0x05, 0x1d, 0xad, 0xd6, 0x25, 0x81, 0x0f, 0xaf, 0x19, 0xee,
  0xff, 0xca, 0xfd, 0xe2, 0xf8, 0x0d, 0xd2, 0x2c, 0xca, 0x04, 0x11, 0x16,
  0xcc, 0xaa, 0x17, 0xf0, 0x1b, 0xfe, 0x01, 0xa1, 0x0e, 0x5e, 0x1a, 0x45,
  0xdb, 0x27, 0xe5, 0x05, 0x01, 0x36, 0x15, 0xea, 0xcd, 0x1f, 0x34, 0x16,
  0x0f, 0xf5, 0xf0, 0xe9, 0x18, 0x18, 0xee, 0xb8, 0x2c, 0xf5, 0x81, 0xfd,
  0xd3, 0xbe, 0xe0, 0x42, 0xe8, 0xd7, 0x04, 0x1a, 0xd7, 0xac, 0xff, 0xd6,
  0xff, 0xd5, 0xda, 0x18, 0x9f, 0xbc, 0xb6, 0xd2, 0xa1, 0xe5, 0x17, 0x5a,
  0xd2, 0xe4, 0xfc, 0x10, 0xec, 0xf5, 0x4d, 0xba, 0x9e, 0x96, 0xd6, 0x15,
  0xe7, 0x38, 0xe5, 0xfc, 0x88, 0xbe, 0x83, 0x81, 0xef, 0xdc, 0x41, 0x11,
  0xfa, 0x0c, 0x22, 0xf8, 0x31, 0x25, 0xde, 0x1b, 0xef, 0xe2, 0xeb, 0xcc,
  0x6e, 0x1b, 0x2c, 0x1f, 0x17, 0x23, 0x20, 0x2b, 0xc9, 0x52, 0xf8, 0x67,
  0x13, 0xda, 0x11, 0xd9, 0xe2, 0xec, 0xff, 0xff, 0x04, 0x00, 0x00, 0x00,
  0x00, 0x03, 0x00, 0x00, 0xf1, 0x18, 0xfd, 0xbc, 0x25, 0xe9, 0xf9, 0xff,
  0xe7, 0xcf, 0x32, 0x2c, 0xfe, 0x33, 0x19, 0x3d, 0x61, 0xd8, 0xb2, 0xb0,
  0x2b, 0x8c, 0x40, 0xf6, 0xa0, 0x17, 0x09, 0x26, 0xdc, 0x04, 0x03, 0xd1,
  0x47, 0xd0, 0x29, 0xc6, 0xa5, 0x81, 0xea, 0x31, 0x06, 0x14, 0x91, 0x2c,
  0xd5, 0xe9, 0x36, 0x2e, 0xeb, 0x1c, 0x5a, 0x90, 0xcd, 0xf8, 0xf8, 0x0d,
  0xbe, 0x18, 0xcb, 0xb5, 0xa7, 0x20, 0x95, 0xe9, 0x26, 0x3f, 0x28, 0x09,
  0xbe, 0xcd, 0xf5, 0xa6, 0x17, 0xf5, 0x1e, 0xea, 0xc8, 0xd9, 0x9f, 0xfc,
  0x62, 0xe4, 0x9f, 0x81, 0xe6, 0x97, 0xc4, 0xc8, 0x9f, 0xce, 0x4c, 0x11,
  0x02, 0xa3, 0xdc, 0xe8, 0xcf, 0x3b, 0xfc, 0xd5, 0xc1, 0xdd, 0xc8, 0xd0,
  0xda, 0xd0, 0x13, 0xff, 0xf9, 0x36, 0xe4, 0xb0, 0xd0, 0xf3, 0x8a, 0xe6,
  0x1d, 0xe0, 0xee, 0x00, 0xfb, 0xf0, 0xb5, 0xec, 0xef, 0x16, 0xdb, 0x68,
  0xe4, 0x0b, 0xe3, 0x2e, 0x03, 0x28, 0x0a, 0x19, 0x34, 0x19, 0xdf, 0x81,
  0x32, 0x01, 0xc3, 0xde, 0x89, 0x00, 0xb6, 0x47, 0xe0, 0x74, 0x24, 0x0d,
  0x3c, 0x9e, 0x13, 0xe0, 0x5f, 0xc7, 0xac, 0x6e, 0x3b, 0xc7, 0x88, 0x43,
  0x02, 0xf6, 0x04, 0xef, 0x0c, 0xf0, 0x0b, 0x40, 0xfc, 0xb6, 0x2d, 0xf8,
  0x3c, 0xb3, 0x9c, 0x1e, 0x15, 0xdb, 0xf8, 0x81, 0x65, 0x10, 0x8b, 0x2a,
  0x55, 0x78, 0x91, 0x14, 0xde, 0xb8, 0x25, 0x29, 0xe2, 0xf6, 0x2d, 0x59,
  0x15, 0xcd, 0x23, 0xbb, 0x00, 0x03, 0x09, 0xce, 0x0b, 0x11, 0x5f, 0xdd,
  0xf4, 0x0c, 0xd7, 0x11, 0x92, 0xfb, 0x23, 0xd7, 0x15, 0x9f, 0xe8, 0xe2,
  0xeb, 0xa0, 0x08, 0x09, 0x39, 0x45, 0xa1, 0xfa, 0x81, 0x1a, 0x3d, 0xd7,
  0x3e, 0xa5, 0x31, 0xc7, 0xdf, 0x12, 0x24, 0x4f, 0xdd, 0x29, 0xec, 0x0f,
  0xe5, 0xea, 0x2a, 0x43, 0x32, 0x4e, 0x1a, 0xee, 0xf7, 0xf5, 0x25, 0x2f,
  0xd2, 0x34, 0xd0, 0x26, 0xf6, 0x11, 0xf6, 0x94, 0x43, 0xd8, 0xf1, 0xf7,
  0x10, 0x8e, 0xf7, 0xe3, 0x05, 0x54, 0xf5, 0x34, 0x01, 0xaf, 0x1e, 0xcf,
  0x12, 0x01, 0x81, 0xf0, 0xbe, 0x44, 0xc8, 0x24, 0xd8, 0x54, 0x22, 0x1b,
  0xc5, 0xf5, 0xdf, 0xb9, 0x13, 0xb3, 0x1f, 0x16, 0xf9, 0x0e, 0x32, 0x3f,
  0xce, 0xf2, 0xf3, 0xee, 0xbd, 0x19, 0x19, 0x83, 0x5d, 0xd6, 0x11, 0xd5,
  0x3b, 0x81, 0xfa, 0xdb, 0xe8, 0x0c, 0xbe, 0x1e, 0xfc, 0xf9, 0x47, 0x07,
  0xe7, 0xe2, 0xf5, 0xea, 0x37, 0x25, 0x50, 0x02, 0xdd, 0x4f, 0x01, 0xea,
  0xbc, 0xe6, 0xfb, 0xd7, 0xe7, 0xca, 0xee, 0x26, 0x5e, 0x22, 0x21, 0xb6,
  0xe3, 0xb4, 0x0b, 0x0e, 0xa5, 0xfe, 0xd0, 0x24, 0x03, 0xf2, 0x04, 0xd0,
  0x3e, 0xdc, 0x81, 0xda, 0xf6, 0xd8, 0xc9, 0xc7, 0xae, 0xab, 0xfd, 0x5c,
  0xc6, 0xd0, 0xf1, 0x2d, 0xe1, 0x93, 0xd5, 0x0e, 0xec, 0xb3, 0x22, 0xf6,
  0x2a, 0xea, 0x07, 0xc2, 0x0a, 0xd4, 0xb5, 0x3a, 0x20, 0xf7, 0x4d, 0xd1,
  0xf8, 0xa4, 0xdf, 0xf3, 0x23, 0x0f, 0xd6, 0xc1, 0xed, 0xbb, 0xb9, 0x22,
  0x81, 0x02, 0xf2, 0xc2, 0xa1, 0x1b, 0xf1, 0x3a, 0x18, 0xc5, 0xe5, 0xa4,
  0xb5, 0xce, 0xbd, 0x58, 0xec, 0x4e, 0xb4, 0xaf, 0xd1, 0xcf, 0xce, 0xdb,
  0xb0, 0xe7, 0xdd, 0xfb, 0x0b, 0xd5, 0xd2, 0x81, 0xe3, 0xf3, 0xdd, 0xee,
  0xdf, 0xaa, 0xb7, 0x06, 0x20, 0x09, 0xd7, 0x14, 0x23, 0xee, 0x9e, 0x0d,
  0xef, 0x31, 0xcb, 0x0e, 0xdf, 0x26, 0xf9, 0x24, 0x16, 0xf2, 0xe2, 0xd8,
  0x0f, 0x02, 0xd9, 0xdc, 0x14, 0xfc, 0x6c, 0x2b, 0x81, 0x07, 0xff, 0x0b,
  0xeb, 0xf3, 0x02, 0x1e, 0xa8, 0x37, 0xb0, 0xf6, 0x0d, 0x18, 0x1d, 0xfa,
  0xaf, 0x20, 0xfd, 0xff, 0xf1, 0xde, 0xdb, 0x29, 0x52, 0xe4, 0xfd, 0xfe,
  0x08, 0xbd, 0x4c, 0xd7, 0xdd, 0xa7, 0xb9, 0x71, 0xba, 0x05, 0x22, 0xb7,
  0xfc, 0x0f, 0xe8, 0xbc, 0x4e, 0x2b, 0xde, 0x02, 0xd5, 0xd4, 0xc8, 0xea,
  0x1c, 0xd7, 0xf4, 0x10, 0x3d, 0x0d, 0x81, 0x8a, 0x19, 0x0a, 0xbe, 0xe4,
  0xfd, 0x9c, 0xe6, 0x17, 0xb9, 0x30, 0xcf, 0xf0, 0x17, 0xa7, 0x0f, 0x0c,
  0xfd, 0xfe, 0x94, 0x8a, 0x20, 0xd7, 0x27, 0xe7, 0x6a, 0x24, 0xff, 0xd6,
  0x28, 0x29, 0x03, 0xc9, 0xc8, 0xb4, 0xd6, 0x69, 0x19, 0x77, 0xcb, 0x0d,
  0x09, 0xb9, 0x1e, 0xfa, 0x34, 0xcf, 0x18, 0x5a, 0xe5, 0xc2, 0xd0, 0x43,
  0xa1, 0x39, 0x1d, 0xea, 0x09, 0xb7, 0xd3, 0x0b, 0xf5, 0x2d, 0xe7, 0x34,
  0x03, 0xe1, 0xf7, 0x23, 0xed, 0xe3, 0x04, 0xce, 0x16, 0xeb, 0xf9, 0x07,
  0xd7, 0x30, 0x05, 0x7f, 0xf2, 0xca, 0xfa, 0xeb, 0xc0, 0xef, 0x10, 0x24,
  0x32, 0x0f, 0x1f, 0xe3, 0x5f, 0x10, 0x18, 0xc6, 0xa8, 0x11, 0x27, 0xf0,
  0x2d, 0x38, 0x1f, 0xfb, 0xf5, 0x25, 0xd2, 0xd4, 0xba, 0x29, 0xc0, 0x0e,
  0xa4, 0x4b, 0x10, 0xfd, 0xdc, 0x17, 0x29, 0x81, 0xbf, 0xb5, 0xfa, 0xe2,
  0xb7, 0x2b, 0xdc, 0xf8, 0x1b, 0xab, 0x2f, 0x61, 0x46, 0xed, 0x27, 0x0e,
  0x56, 0xb5, 0x88, 0x31, 0xc2, 0x81, 0x99, 0x6a, 0x32, 0xc2, 0x4c, 0x29,
  0xd1, 0x94, 0xef, 0x43, 0x00, 0x14, 0xfb, 0x1f, 0xa7, 0x19, 0x85, 0xfd,
  0xa9, 0xf8, 0x30, 0x11, 0x9c, 0x01, 0xca, 0x0b, 0x37, 0xfc, 0x5b, 0x2c,
  0x04, 0xe8, 0xb3, 0xfb, 0xc6, 0x81, 0xe9, 0x2b, 0xca, 0x17, 0x47, 0x16,
  0xeb, 0xfc, 0x0e, 0x97, 0x10, 0xfc, 0x43, 0xb0, 0x18, 0x9d, 0xe7, 0xfa,
  0x31, 0x1a, 0x03, 0xe7, 0x0f, 0x00, 0xfe, 0xce, 0xf2, 0xfc, 0x4e, 0x50,
  0x2c, 0xda, 0x0c, 0xe9, 0x38, 0x53, 0xfb, 0x21, 0xf8, 0x24, 0x2a, 0xd6,
  0x62, 0xe5, 0x65, 0x3b, 0xee, 0xef, 0xff, 0xff, 0x04, 0x00, 0x00, 0x00,
  0x00, 0x03, 0x00, 0x00, 0x07, 0xa8, 0xdc, 0x58, 0xfd, 0x99, 0x05, 0x81,
  0x30, 0x12, 0xc4, 0xde, 0xdc, 0xb6, 0xf3, 0xd4, 0x20, 0xa0, 0xe4, 0x23,
  0x07, 0x0f, 0xec, 0xd7, 0x4b, 0x18, 0xbd, 0x08, 0x00, 0xe5, 0xa8, 0x16,
  0xd0, 0x00, 0x09, 0x0d, 0xb1, 0xde, 0xc7, 0xa0, 0xe4, 0x18, 0x8a, 0xe1,
  0xf0, 0x2c, 0xb1, 0xf7, 0xe8, 0x7f, 0xe3, 0xe2, 0x1b, 0xfd, 0x3a, 0x35,
  0xcb, 0xbc, 0xfa, 0xea, 0xc0, 0xcf, 0x18, 0xec, 0xfc, 0x62, 0x07, 0x1b,
  0x0d, 0x0c, 0xa5, 0x15, 0x3f, 0xa2, 0x32, 0x25, 0x2a, 0xf8, 0x18, 0xef,
  0x29, 0x54, 0x1d, 0xeb, 0x01, 0x21, 0xdd, 0xf7, 0xc4, 0xe0, 0x74, 0xfc,
  0x01, 0xb2, 0x3a, 0x20, 0x92, 0x31, 0x94, 0xbd, 0x27, 0x07, 0xf9, 0x95,
  0x63, 0xcc, 0x26, 0x40, 0x01, 0xbe, 0xcb, 0xfa, 0xae, 0xde, 0xb2, 0x81,
  0x2d, 0xef, 0xf3, 0x9d, 0x31, 0x0b, 0x34, 0x4a, 0xec, 0x16, 0xf0, 0xab,
  0x15, 0x2d, 0xbb, 0xf3, 0x0e, 0xf4, 0x89, 0xca, 0x2d, 0xd7, 0x2e, 0x4d,
  0xe8, 0xe0, 0xdc, 0x49, 0x81, 0xc2, 0xb9, 0xea, 0xc8, 0x3b, 0x10, 0x3b,
  0xa1, 0xe2, 0x96, 0x3c, 0xbc, 0xb6, 0x6a, 0x36, 0xca, 0xaf, 0xd4, 0xe8,
  0xcf, 0x41, 0x2c, 0xe1, 0xc7, 0xd7, 0x8f, 0x62, 0xd0, 0x8b, 0x35, 0x63,
  0x8a, 0xc1, 0xfe, 0xe5, 0xcb, 0xfc, 0x0c, 0xd8, 0x1b, 0x01, 0xac, 0x47,
  0x23, 0xb9, 0x25, 0x4d, 0x13, 0xff, 0x19, 0x47, 0x2d, 0xe5, 0xe7, 0xe1,
  0xee, 0xf2, 0xda, 0xe0, 0xed, 0x18, 0xdc, 0x47, 0x02, 0xf1, 0x4e, 0x42,
  0xd1, 0x26, 0xbb, 0x1e, 0x0e, 0xf0, 0x81, 0xdd, 0xae, 0xfe, 0xd7, 0xbe,
  0xc7, 0xd5, 0xf1, 0xbf, 0x19, 0xd7, 0xb7, 0xa1, 0xba, 0x9e, 0xa3, 0xed,
  0xa4, 0x36, 0xd7, 0xc4, 0xd6, 0xf9, 0xb6, 0xf5, 0x02, 0x43, 0x18, 0x35,
  0x9c, 0xd8, 0xcb, 0x39, 0x25, 0x17, 0x09, 0xd8, 0x9c, 0xf6, 0xd1, 0xc9,
  0x26, 0x2c, 0xb1, 0x1e, 0xa0, 0x13, 0x05, 0x40, 0xcb, 0x81, 0x18, 0x0a,
  0xa2, 0xb9, 0x85, 0xa1, 0x12, 0x16, 0xac, 0xd6, 0x0c, 0x2a, 0x13, 0x6c,
  0x1b, 0xb6, 0x33, 0x0b, 0x23, 0xd1, 0x5d, 0x4c, 0xd6, 0x0e, 0x00, 0x17,
  0x0d, 0x07, 0xd2, 0xbe, 0xe9, 0x66, 0xd8, 0xc5, 0xdc, 0xf4, 0x01, 0xe0,
  0xe7, 0xf7, 0xdc, 0x12, 0xe9, 0xf7, 0xd8, 0xcd, 0x00, 0x06, 0xd4, 0x99,
  0x0e, 0x81, 0xa9, 0xee, 0xf6, 0xe6, 0x2c, 0xd0, 0xb1, 0xcc, 0xe4, 0xe9,
  0xa0, 0x06, 0xcf, 0x8e, 0xe6, 0xf1, 0x0b, 0x15, 0xf4, 0x17, 0x40, 0x30,
  0x12, 0x81, 0xfe, 0xe5, 0x2b, 0x1c, 0xf0, 0xbf, 0xda, 0xdb, 0xde, 0xea,
  0x2b, 0x16, 0x12, 0x15, 0x07, 0xd0, 0xed, 0x06, 0x16, 0x26, 0xe3, 0xf4,
  0x8a, 0xc9, 0xaf, 0xf7, 0x38, 0xfc, 0xf5, 0xd9, 0x41, 0xc0, 0xb7, 0x47,
  0x20, 0xbe, 0xc0, 0xad, 0xe3, 0xb9, 0x5b, 0xd3, 0xdc, 0xe3, 0x32, 0x5d,
  0xb4, 0xd0, 0xc3, 0xf1, 0x29, 0x2b, 0x65, 0x48, 0x08, 0x8b, 0x1a, 0xc4,
  0x04, 0xf8, 0x49, 0x1a, 0xe0, 0xd0, 0xd1, 0xb3, 0x21, 0xcf, 0x2a, 0x37,
  0x3a, 0xcf, 0x0d, 0xf7, 0x7f, 0x4c, 0x24, 0x30, 0x02, 0x34, 0xf7, 0x1e,
  0xf4, 0x03, 0x43, 0x11, 0xdd, 0xad, 0xf4, 0xc6, 0x29, 0x19, 0x81, 0x00,
  0x07, 0x41, 0x3a, 0xa6, 0x16, 0x2c, 0xf9, 0xa2, 0xd7, 0x29, 0x52, 0x98,
  0x32, 0xa2, 0x16, 0x09, 0xef, 0x36, 0x14, 0x06, 0x16, 0xf6, 0xe7, 0xd7,
  0xe0, 0x38, 0x3b, 0xbd, 0xda, 0xca, 0x2d, 0x49, 0xc1, 0xe5, 0x0f, 0x01,
  0x00, 0x49, 0x91, 0xe3, 0xf5, 0xfa, 0xa4, 0xe9, 0xf0, 0x88, 0x96, 0x24,
  0xe7, 0x15, 0x05, 0x2c, 0x36, 0xfb, 0x17, 0xc8, 0x11, 0xee, 0xa9, 0xdb,
  0xbc, 0xc0, 0xe4, 0x0f, 0x17, 0x43, 0xdf, 0x35, 0xe7, 0xb1, 0xca, 0x24,
  0x1c, 0xa6, 0xa9, 0x03, 0xba, 0xcc, 0x81, 0x09, 0xe5, 0x41, 0xd3, 0x07,
  0x70, 0xb9, 0xc7, 0x38, 0xd6, 0x03, 0xf6, 0x44, 0xfb, 0xb4, 0x11, 0xde,
  0xdb, 0x0f, 0xfe, 0xd6, 0x81, 0x02, 0x27, 0x00, 0xf0, 0x09, 0xcd, 0x3c,
  0x18, 0xe4, 0x1d, 0xfe, 0x06, 0x13, 0xa5, 0x00, 0xd6, 0x06, 0xee, 0xff,
  0xb4, 0xf3, 0x28, 0x1f, 0x04, 0x0c, 0x17, 0xd5, 0x3f, 0xfa, 0xcd, 0xf7,
  0x21, 0x1e, 0x14, 0x2c, 0x20, 0x07, 0xae, 0xf7, 0xf8, 0x14, 0x25, 0xdc,
  0xc5, 0x0d, 0x3f, 0x10, 0xea, 0xb6, 0x20, 0x2d, 0xee, 0x35, 0xae, 0x89,
  0xd6, 0x2a, 0xba, 0x3b, 0x85, 0x1e, 0x12, 0x0b, 0x26, 0x52, 0xf7, 0x21,
  0xfe, 0xdc, 0xcc, 0x8e, 0x03, 0x1a, 0xa0, 0x33, 0x60, 0x16, 0xab, 0x12,
  0x40, 0x26, 0x81, 0x0f, 0x04, 0xf0, 0xa4, 0x3a, 0x9d, 0xc5, 0xc2, 0x81,
  0xc3, 0xd5, 0xdc, 0xb9, 0xc2, 0xba, 0xea, 0xa9, 0xf7, 0xd2, 0xc2, 0x31,
  0xf7, 0xd4, 0x05, 0xdf, 0xe3, 0xf3, 0x07, 0x99, 0xb9, 0xf6, 0x2b, 0x1f,
  0xfd, 0xfd, 0xc5, 0xf9, 0xe8, 0xfe, 0xcc, 0xed, 0xea, 0xa5, 0x19, 0x9e,
  0xad, 0xea, 0x15, 0x0c, 0x96, 0xfe, 0x24, 0xf0, 0x81, 0x28, 0xbf, 0xcd,
  0x1d, 0x38, 0xad, 0x13, 0x14, 0xba, 0x13, 0xc3, 0xa2, 0x27, 0x1a, 0xee,
  0xb9, 0x0b, 0xc7, 0x03, 0xf5, 0x2a, 0xfc, 0x10, 0x32, 0xd9, 0x00, 0xdd,
  0xfb, 0x46, 0xe8, 0x16, 0xa8, 0xd5, 0xa4, 0x00, 0x0f, 0x5e, 0xba, 0x4d,
  0xfd, 0x01, 0x34, 0xe9, 0xd3, 0x9a, 0xb9, 0x09, 0x81, 0x9f, 0xc3, 0xcd,
  0xd5, 0xf4, 0x91, 0xe1, 0x15, 0x1d, 0x55, 0x00, 0xf6, 0xd0, 0xe6, 0xda,
  0x9a, 0x23, 0xe4, 0x1d, 0xd5, 0xf3, 0xe1, 0xdf, 0xee, 0x1d, 0x06, 0x0a,
  0x1f, 0xfb, 0xc3, 0xc4, 0xa5, 0x03, 0x12, 0x62, 0xc2, 0x9f, 0xca, 0xe2,
  0xbf, 0x57, 0x43, 0x3d, 0xfa, 0xf2, 0xff, 0xff, 0x04, 0x00, 0x00, 0x00,
  0xd0, 0x02, 0x00, 0x00, 0x95, 0xe9, 0x3b, 0xd4, 0x10, 0xf9, 0x4a, 0xf7,
  0xbe, 0xa4, 0xe9, 0xdb, 0x40, 0xdc, 0xf7, 0x81, 0xe1, 0x48, 0x83, 0xae,
  0x21, 0x10, 0xe4, 0xf7, 0x05, 0x45, 0x0c, 0xfb, 0xf1, 0x2e, 0xa2, 0x18,
  0xf6, 0xb6, 0x3a, 0x5c, 0x3d, 0xf9, 0x15, 0x17, 0xdb, 0x4a, 0x4f, 0x1e,
  0x4a, 0x26, 0xf4, 0x50, 0xec, 0x3b, 0xea, 0xf0, 0xf1, 0xee, 0x25, 0xf0,
  0xf9, 0x1b, 0x05, 0xf0, 0x07, 0x29, 0x46, 0xfa, 0x0f, 0xe1, 0x07, 0x02,
  0x0a, 0x30, 0xe4, 0x15, 0xf2, 0xfa, 0x03, 0x18, 0x45, 0x7f, 0xfb, 0x09,
  0xfc, 0x33, 0x00, 0xfd, 0x1b, 0xff, 0x27, 0xe5, 0x14, 0x15, 0xfd, 0x81,
  0xa3, 0xd0, 0x33, 0xf4, 0xc6, 0xd8, 0x09, 0x17, 0xfb, 0xed, 0xe3, 0x26,
  0xd3, 0xc1, 0x13, 0x0f, 0xf1, 0x10, 0xd0, 0xc9, 0xf3, 0x06, 0xf2, 0x03,
  0xf1, 0x01, 0x09, 0xd7, 0x91, 0xc7, 0xe9, 0xf7, 0x27, 0x05, 0x05, 0xdc,
  0x38, 0x0c, 0xcd, 0x07, 0xdf, 0x22, 0xf8, 0xe9, 0xd8, 0x36, 0x81, 0xf4,
  0xf5, 0x4d, 0x25, 0x14, 0x00, 0xfb, 0x11, 0x08, 0xe3, 0x4a, 0x1a, 0xaf,
  0x0a, 0x8d, 0x0a, 0x04, 0x33, 0x3d, 0x0a, 0xfe, 0xe4, 0xd5, 0x14, 0xd7,
  0x5a, 0x11, 0xd6, 0x0d, 0xb7, 0xfc, 0x3f, 0x9b, 0x20, 0xdb, 0x14, 0xeb,
  0x2f, 0x4c, 0xe0, 0x44, 0xec, 0x00, 0x2c, 0x26, 0x99, 0x37, 0xf3, 0xef,
  0x3d, 0xe1, 0xff, 0x28, 0xc6, 0x05, 0x20, 0xfc, 0x60, 0xb4, 0x2d, 0x81,
  0x02, 0xda, 0xed, 0xed, 0xe4, 0xf1, 0xf6, 0x9d, 0x2b, 0xef, 0x0b, 0x4d,
  0x2e, 0xeb, 0xcb, 0x21, 0x1f, 0xfe, 0x33, 0x5c, 0x07, 0x4a, 0x01, 0xef,
  0x51, 0xee, 0x3e, 0x45, 0x30, 0x04, 0xfc, 0x09, 0xc2, 0xbf, 0x20, 0x21,
  0xfc, 0x38, 0x38, 0xdc, 0x1f, 0xdf, 0xf0, 0x36, 0xd0, 0xd3, 0x8b, 0xee,
  0xe7, 0xda, 0xc9, 0xec, 0x4a, 0x36, 0xe8, 0xe7, 0x14, 0xda, 0x12, 0xf7,
  0x0a, 0xf1, 0xe4, 0x81, 0xe9, 0x36, 0xe4, 0xea, 0x23, 0x0b, 0x81, 0xd3,
  0xf7, 0x12, 0x1a, 0x07, 0xd9, 0x1b, 0x41, 0xe0, 0xdf, 0x0c, 0xf7, 0xf5,
  0x35, 0x8f, 0x18, 0xfd, 0xf7, 0xdf, 0xc7, 0xf2, 0xfd, 0x24, 0x22, 0x36,
  0x1a, 0x09, 0x22, 0xdc, 0xd9, 0x6f, 0xae, 0xbd, 0x24, 0x2b, 0xd3, 0xb8,
  0x51, 0xe7, 0xbe, 0x1c, 0xd3, 0x1d, 0xdc, 0xa5, 0xd4, 0x34, 0x14, 0x63,
  0x04, 0x4a, 0xfc, 0xc6, 0x34, 0x3b, 0x3a, 0x2f, 0xee, 0x16, 0xac, 0xf7,
  0xbd, 0x62, 0x27, 0x08, 0x19, 0xbe, 0xf6, 0x37, 0x22, 0x13, 0x0e, 0xf4,
  0xfa, 0xeb, 0x49, 0x0b, 0x7f, 0x0d, 0x03, 0x3a, 0xc1, 0xc6, 0xf4, 0x19,
  0x07, 0x0d, 0xf8, 0xf2, 0x19, 0x10, 0xaa, 0xef, 0x8d, 0x7f, 0x2b, 0xd6,
  0x2a, 0xb4, 0x04, 0x33, 0x0a, 0xea, 0xef, 0x0e, 0xef, 0xea, 0xeb, 0xb2,
  0x7e, 0xbc, 0x21, 0x03, 0xcf, 0xf2, 0xf6, 0x0a, 0xc0, 0x2c, 0xef, 0xe4,
  0xe4, 0xe7, 0xef, 0x7b, 0xe3, 0x13, 0x1c, 0xdf, 0xd8, 0xf1, 0x0c, 0xe3,
  0xf7, 0x40, 0xc9, 0xcc, 0xa3, 0x7d, 0xca, 0x7f, 0xd0, 0xa4, 0xf7, 0xf8,
  0xd5, 0x2a, 0xe6, 0x00, 0x15, 0xaa, 0xbb, 0xe1, 0x57, 0xc8, 0x32, 0xfe,
  0xa8, 0x7c, 0x0e, 0xd9, 0xde, 0x3d, 0x0f, 0x6d, 0xac, 0xe5, 0x8b, 0x60,
  0xfd, 0x0e, 0xcf, 0xb0, 0x30, 0xb5, 0x33, 0xe2, 0xae, 0xda, 0xed, 0x7f,
  0x15, 0x09, 0xaf, 0x10, 0xf8, 0xcd, 0x36, 0x06, 0xe7, 0x06, 0xe9, 0xeb,
  0xdc, 0xfe, 0x47, 0x33, 0xfa, 0x01, 0x1b, 0x33, 0x2b, 0x43, 0xfd, 0x04,
  0x02, 0x0a, 0xfa, 0x0b, 0xc7, 0x68, 0x53, 0xef, 0xd7, 0xe8, 0x37, 0xd1,
  0x1e, 0xd3, 0xff, 0xe8, 0xef, 0x07, 0x0c, 0x1a, 0x7f, 0xb6, 0x13, 0xff,
  0xfd, 0x2b, 0xe0, 0xea, 0xed, 0x35, 0xf2, 0xd7, 0xe0, 0xdc, 0x09, 0x40,
  0xd7, 0x23, 0xe7, 0x03, 0xc7, 0x26, 0xe0, 0xed, 0x07, 0xde, 0x19, 0x06,
  0x9e, 0x22, 0x43, 0xde, 0xf3, 0xff, 0xda, 0x31, 0x1c, 0xd7, 0xca, 0xe4,
  0xe5, 0xdf, 0xfd, 0xc8, 0xea, 0x28, 0xe3, 0x45, 0x17, 0x71, 0x13, 0xc2,
  0xb7, 0x00, 0x2f, 0x9c, 0x69, 0xcc, 0xb1, 0xac, 0x8f, 0x81, 0x13, 0xff,
  0x29, 0xc4, 0xd7, 0xbf, 0xef, 0xe0, 0xef, 0x14, 0xad, 0xfe, 0xd0, 0xd2,
  0xc7, 0x32, 0xc1, 0x03, 0x67, 0x4b, 0x86, 0x34, 0x6a, 0x19, 0xfd, 0xc0,
  0xb8, 0x16, 0x18, 0xfd, 0x46, 0xde, 0x7f, 0x21, 0xf8, 0x32, 0xf1, 0xd5,
  0xef, 0x10, 0xe9, 0x31, 0x2a, 0xef, 0x49, 0x40, 0xfa, 0x09, 0x5a, 0x08,
  0x50, 0x36, 0xfc, 0x11, 0x0b, 0x97, 0x41, 0xb9, 0xa1, 0x23, 0x6d, 0x2c,
  0x03, 0x50, 0xb5, 0x32, 0xe7, 0x3d, 0xfd, 0x15, 0x04, 0xc7, 0xf3, 0xb5,
  0xf9, 0x5e, 0x19, 0xfa, 0xee, 0x25, 0xf0, 0xd9, 0xfc, 0x27, 0xe5, 0x1e,
  0x3e, 0xd1, 0x61, 0xf9, 0x81, 0x46, 0x95, 0xf8, 0xf0, 0x0c, 0x21, 0x1d,
  0x01, 0x05, 0xfa, 0x2e, 0x3c, 0x6c, 0xa9, 0xb4, 0x1a, 0xc4, 0xf0, 0x29,
  0x61, 0x01, 0x1f, 0xeb, 0xc4, 0x12, 0x29, 0xd1, 0x5b, 0xd4, 0xc1, 0x39,
  0xce, 0xe4, 0x65, 0x39, 0x99, 0x06, 0x7f, 0x6a, 0xd3, 0x46, 0xbc, 0x01,
  0xdf, 0x16, 0x39, 0xf8, 0x08, 0x40, 0x42, 0xb6, 0xcc, 0xff, 0xe3, 0x0d,
  0xe5, 0xbe, 0x14, 0xfa, 0xff, 0x59, 0xf8, 0xf3, 0x0b, 0x5e, 0xfd, 0x90,
  0x2f, 0xf7, 0xe0, 0x13, 0xd6, 0xf5, 0xff, 0xff, 0x04, 0x00, 0x00, 0x00,
  0xc0, 0x01, 0x00, 0x00, 0xd8, 0xf8, 0x0d, 0xe5, 0x04, 0xd0, 0x0f, 0x00,
  0xe6, 0x01, 0xf3, 0xe9, 0xe8, 0x0c, 0xea, 0xf4, 0xe7, 0x07, 0xfd, 0x15,
  0xe7, 0xef, 0xf7, 0xed, 0xed, 0xe3, 0xdc, 0x05, 0xff, 0x00, 0x1b, 0x08,
  0xfb, 0x10, 0xd6, 0xed, 0x0f, 0x05, 0xda, 0xd5, 0xed, 0x0f, 0xf1, 0xfc,
  0x0b, 0xe5, 0xfc, 0xee, 0x0d, 0x0e, 0xe7, 0xfa, 0x0f, 0xef, 0xfa, 0x0d,
  0xff, 0xe0, 0xf4, 0xf2, 0xf5, 0xed, 0xf0, 0xf8, 0xf7, 0x11, 0xf1, 0xd1,
  0xd3, 0xce, 0xe5, 0xde, 0xf0, 0x0d, 0xf2, 0xfa, 0xe6, 0x0f, 0x03, 0xd8,
  0xee, 0x00, 0x12, 0xea, 0x13, 0xc5, 0xd5, 0x13, 0xe4, 0x0e, 0x01, 0x12,
  0x14, 0x04, 0xd8, 0x0a, 0xfc, 0xf7, 0xd7, 0xf3, 0x15, 0xdb, 0xd8, 0xdf,
  0xec, 0x12, 0xe3, 0xe2, 0x06, 0x18, 0xf4, 0xe1, 0xf5, 0x12, 0x11, 0x03,
  0x0c, 0xfb, 0x0c, 0xf6, 0xfe, 0xe2, 0xf0, 0xce, 0xf5, 0xe3, 0x0a, 0x0f,
  0xf5, 0x0c, 0x14, 0x13, 0xf4, 0xb4, 0x06, 0xd1, 0xf4, 0xec, 0x05, 0x01,
  0xf4, 0x17, 0xed, 0x0f, 0xef, 0xce, 0xea, 0x0a, 0xd7, 0x08, 0x06, 0x09,
  0x0c, 0x0c, 0xf0, 0xfa, 0xdc, 0xf9, 0xfc, 0x09, 0xec, 0xf3, 0xf8, 0xfb,
  0xfe, 0xff, 0xf5, 0xff, 0xfc, 0xfa, 0xfc, 0x18, 0x0a, 0xdb, 0x0c, 0x0f,
  0x0d, 0xec, 0x00, 0xfe, 0xfd, 0xfb, 0x0c, 0xfd, 0xe6, 0x08, 0x06, 0xdd,
  0xfd, 0xf2, 0xf9, 0xea, 0xe6, 0x02, 0x16, 0xf8, 0xf5, 0xc1, 0x0a, 0xdf,
  0xd9, 0xea, 0x14, 0xf0, 0x0e, 0xff, 0xed, 0x0d, 0x0a, 0xcb, 0xf0, 0xe0,
  0xe7, 0x0b, 0xee, 0x07, 0xdb, 0x00, 0xee, 0x0b, 0xde, 0x18, 0xe6, 0x0a,
  0x0e, 0xe9, 0x0e, 0x18, 0xe2, 0xdd, 0xe9, 0xf4, 0x13, 0xd5, 0x0c, 0xfb,
  0xd8, 0x07, 0xfd, 0x09, 0xdb, 0xe9, 0x11, 0xeb, 0x09, 0xdb, 0x10, 0x01,
  0x0a, 0x0d, 0x11, 0xfd, 0x10, 0xf6, 0xe6, 0xe5, 0x1a, 0xf0, 0xed, 0xf3,
  0x02, 0xe4, 0x01, 0x04, 0x14, 0xfc, 0xf9, 0xf5, 0xfc, 0xe4, 0xe3, 0xf1,
  0xf1, 0x05, 0x0b, 0x00, 0x11, 0xd5, 0xfc, 0xe5, 0xf8, 0x03, 0x0c, 0x05,
  0x12, 0xde, 0x13, 0xd8, 0x03, 0xe3, 0x0a, 0x13, 0x0e, 0xf5, 0xee, 0xff,
  0xf9, 0x05, 0x10, 0x0c, 0x04, 0xf3, 0xe9, 0xfd, 0x03, 0x03, 0x11, 0xd8,
  0xf1, 0x12, 0x16, 0xe3, 0xe6, 0xeb, 0xfb, 0xfc, 0xfa, 0xf4, 0x00, 0xe7,
  0x00, 0xd7, 0x19, 0x01, 0xbd, 0x81, 0x0b, 0x07, 0x01, 0xd4, 0x14, 0xdc,
  0xe3, 0xde, 0xe7, 0xf1, 0xed, 0xf0, 0x12, 0xeb, 0xe9, 0xe7, 0xf2, 0xea,
  0xfa, 0x12, 0x10, 0x10, 0x07, 0x00, 0xff, 0xf5, 0xe4, 0x05, 0x0f, 0xdb,
  0xfd, 0xb6, 0x14, 0x06, 0xe1, 0x0a, 0xcd, 0xeb, 0xe0, 0x12, 0xdc, 0xf5,
  0xd7, 0x09, 0x02, 0x1a, 0xe0, 0xe6, 0xcb, 0xde, 0x01, 0x00, 0xd5, 0x04,
  0x0e, 0xea, 0x1e, 0x0c, 0xe5, 0xe2, 0xe4, 0xe9, 0xd2, 0xda, 0xe5, 0x09,
  0xe9, 0xfa, 0xef, 0x17, 0xe4, 0xf6, 0x0b, 0xf2, 0xfd, 0x0b, 0x11, 0x14,
  0xf2, 0xd0, 0x15, 0xf7, 0xe5, 0x0d, 0xdd, 0xec, 0x11, 0xfb, 0xff, 0xfb,
  0xe6, 0x02, 0xf9, 0xe5, 0xd7, 0x04, 0x06, 0xde, 0xfd, 0x01, 0xdd, 0x19,
  0x0d, 0xf0, 0x11, 0x17, 0x10, 0xe7, 0xf9, 0x0c, 0xfe, 0xff, 0xeb, 0xf8,
  0xd7, 0xf5, 0xe9, 0xd9, 0xfe, 0x01, 0x0d, 0xed, 0xa2, 0xf7, 0xff, 0xff,
  0x04, 0x00, 0x00, 0x00, 0x00, 0x04, 0x00, 0x00, 0xd3, 0xcc, 0xe4, 0xf2,
  0xed, 0xd8, 0x1d, 0xc2, 0xdc, 0xb9, 0xf1, 0xb7, 0x1f, 0xe2, 0xba, 0xe4,
  0xd4, 0xeb, 0xf2, 0xff, 0x1a, 0xed, 0xec, 0xd0, 0x2e, 0x17, 0xf1, 0xbf,
  0x19, 0xd4, 0x14, 0x0b, 0xdf, 0x15, 0x1f, 0xfc, 0xed, 0xef, 0xe1, 0xeb,
  0xed, 0x1d, 0x0f, 0xff, 0x0e, 0x28, 0x20, 0xb0, 0xe4, 0xae, 0xf9, 0x3e,
  0xf7, 0x23, 0x17, 0x2e, 0x1b, 0xfe, 0x0d, 0x3f, 0x08, 0x1c, 0xfb, 0x5e,
  0x04, 0x01, 0x04, 0x26, 0xed, 0xf8, 0x10, 0x5c, 0xc9, 0x93, 0x26, 0x11,
  0xf7, 0x58, 0xbf, 0x1f, 0x0a, 0xfd, 0x1c, 0x30, 0x81, 0xf5, 0x15, 0xcc,
  0xd5, 0x0c, 0xf1, 0x0f, 0x39, 0x1c, 0xff, 0x0a, 0xef, 0xcf, 0x04, 0xf9,
  0x1e, 0x95, 0x25, 0xb8, 0xa1, 0xd9, 0xdd, 0xe4, 0xdf, 0x3b, 0xc6, 0xd7,
  0x1c, 0xe5, 0xd7, 0x0e, 0xec, 0xe9, 0x11, 0x0c, 0xe9, 0x41, 0xb8, 0x1c,
  0x23, 0xd0, 0xfd, 0xc6, 0xea, 0xd2, 0xe1, 0x08, 0xcc, 0x1b, 0xc1, 0xfb,
  0x04, 0xd4, 0x1e, 0x9e, 0xfc, 0x22, 0x16, 0xe3, 0xae, 0x0c, 0x3e, 0xda,
  0xfb, 0xfb, 0xe1, 0x18, 0x1b, 0x37, 0x03, 0xcc, 0xcb, 0xdd, 0x04, 0x13,
  0xe8, 0x1f, 0x9b, 0xde, 0x2c, 0xb0, 0xdc, 0xd3, 0xe3, 0x01, 0xdb, 0xfa,
  0xd7, 0xf9, 0x20, 0x11, 0xf9, 0xb2, 0xeb, 0xf8, 0x1c, 0x07, 0xe3, 0x45,
  0xef, 0xf6, 0xb5, 0xc1, 0xbf, 0xf2, 0xd2, 0x38, 0x1d, 0x3a, 0xbe, 0x14,
  0x13, 0xfc, 0xff, 0x42, 0xed, 0xf3, 0x18, 0xf0, 0x06, 0xf6, 0xc0, 0x12,
  0xe1, 0xee, 0x1f, 0x41, 0x0e, 0x19, 0xfd, 0x12, 0xe2, 0xc6, 0xeb, 0x0e,
  0xe0, 0xe6, 0x2b, 0xe7, 0xe3, 0xfb, 0xc7, 0xee, 0x2b, 0x10, 0xf6, 0x12,
  0xac, 0xff, 0xd1, 0xe8, 0x3c, 0xca, 0xc5, 0xf3, 0xf4, 0x3a, 0xe9, 0xee,
  0x17, 0xd3, 0xdf, 0xe8, 0xdd, 0xb8, 0x03, 0xfa, 0xeb, 0xef, 0x3a, 0xfa,
  0xce, 0x00, 0xf1, 0xe4, 0xf1, 0xe5, 0x03, 0xcd, 0xf8, 0xc2, 0x20, 0x0f,
  0x14, 0xe1, 0xc1, 0xcc, 0x0d, 0xdb, 0xdc, 0xc0, 0x30, 0x07, 0xde, 0xcc,
  0x3f, 0xc0, 0xe9, 0xbc, 0x5e, 0xa2, 0x14, 0xe4, 0xd6, 0xf9, 0x18, 0xd8,
  0xb5, 0x06, 0xe3, 0xe1, 0x0b, 0xf0, 0xdc, 0xf7, 0xf0, 0xd7, 0x3d, 0xc0,
  0xc1, 0xcc, 0x3c, 0xd8, 0x01, 0x2d, 0xe3, 0x16, 0x14, 0x24, 0x27, 0x15,
  0xfb, 0xfb, 0x07, 0x0f, 0x02, 0xad, 0x10, 0xe9, 0xb7, 0xa5, 0x22, 0x10,
  0xec, 0xa7, 0x07, 0x15, 0xee, 0x06, 0xc2, 0x13, 0xd2, 0x1a, 0xde, 0x06,
  0xa6, 0xf7, 0xe4, 0xda, 0xa8, 0x19, 0xbf, 0xda, 0x3f, 0x33, 0x01, 0x03,
  0xda, 0x18, 0x16, 0x08, 0x01, 0x0f, 0xc8, 0x99, 0xe3, 0x2c, 0xe6, 0xbd,
  0xff, 0x09, 0xd5, 0x0e, 0x14, 0x1a, 0xcf, 0xe7, 0x12, 0xf3, 0xf7, 0x13,
  0xd3, 0xfc, 0x02, 0xe9, 0xed, 0xc0, 0xd0, 0xaf, 0xde, 0xfb, 0x26, 0x1a,
  0xe1, 0xd0, 0xbd, 0xf8, 0x3b, 0xd7, 0xe3, 0xbe, 0xa9, 0xe9, 0xf4, 0x1a,
  0x0b, 0x14, 0xf9, 0x07, 0x33, 0xf7, 0x07, 0x1d, 0xe7, 0x31, 0xdd, 0xdd,
  0xd9, 0x04, 0xb6, 0x2a, 0xd6, 0xee, 0x15, 0x2f, 0xce, 0x15, 0x0a, 0xdb,
  0x0a, 0xc4, 0x00, 0x21, 0xd5, 0x4d, 0x0e, 0xe5, 0xec, 0xb5, 0x34, 0x27,
  0xc5, 0xe4, 0xd9, 0xbf, 0xf3, 0x0e, 0x31, 0x50, 0x1c, 0xd9, 0xdf, 0xdc,
  0xe8, 0x14, 0x1e, 0x1f, 0x13, 0x16, 0x0c, 0x93, 0xf4, 0x4f, 0xdf, 0xff,
  0xe1, 0xba, 0xed, 0x0b, 0x1e, 0x03, 0xf1, 0xe0, 0x04, 0x09, 0xea, 0x17,
  0x01, 0xcf, 0x01, 0xea, 0xfe, 0xed, 0xa2, 0xdd, 0x12, 0x31, 0xe9, 0x09,
  0xcb, 0xbb, 0xe4, 0xed, 0xff, 0xf8, 0x1e, 0x03, 0xad, 0x41, 0xb5, 0x35,
  0x25, 0xf3, 0xd6, 0x42, 0x0a, 0x22, 0x1e, 0x00, 0x05, 0xfc, 0xb1, 0x1a,
  0x41, 0xdf, 0x9a, 0xb0, 0xdf, 0x03, 0xde, 0xf0, 0xdf, 0xcf, 0xe2, 0x14,
  0x13, 0x0a, 0x23, 0xc5, 0xa9, 0xe2, 0xf8, 0x1f, 0x04, 0x20, 0xae, 0x15,
  0x18, 0x03, 0x15, 0x4c, 0xc7, 0x17, 0xbb, 0xd5, 0x04, 0x08, 0xe7, 0x3f,
  0xec, 0xf3, 0x2d, 0xde, 0x50, 0x47, 0xcd, 0xfe, 0xec, 0xe8, 0xd8, 0xcf,
  0x14, 0xec, 0x37, 0xd4, 0xeb, 0xeb, 0x28, 0xe6, 0xfb, 0xe5, 0x34, 0xf9,
  0x04, 0x36, 0x16, 0xf3, 0xe4, 0xe6, 0x0f, 0x47, 0x10, 0xeb, 0x00, 0x2b,
  0x18, 0x0f, 0x38, 0xfa, 0x05, 0x0d, 0x0e, 0x4b, 0x0a, 0xe4, 0x06, 0xfc,
  0xe1, 0x2f, 0x16, 0xbe, 0xae, 0x19, 0x24, 0xba, 0x15, 0x1a, 0x25, 0xca,
  0x29, 0xf8, 0x1e, 0xc9, 0xd4, 0x4e, 0xe8, 0x2b, 0x30, 0x1a, 0xc0, 0xfc,
  0xbf, 0x11, 0xf9, 0xa7, 0x03, 0x12, 0xf4, 0xcf, 0x0c, 0xf1, 0x1b, 0x1c,
  0xeb, 0xd3, 0xf0, 0xcf, 0xe3, 0xa5, 0x1c, 0x05, 0xdb, 0xaf, 0x04, 0x0e,
  0x2c, 0xc7, 0xdc, 0x04, 0xec, 0xe1, 0xe9, 0xc5, 0x1c, 0x0b, 0xf5, 0x27,
  0x12, 0xed, 0x2c, 0x96, 0xd7, 0xe0, 0x0b, 0xad, 0x41, 0xdf, 0xe0, 0xf6,
  0x5c, 0x0c, 0x08, 0x13, 0xe5, 0xf9, 0xe7, 0x18, 0xd5, 0xda, 0xfa, 0x1c,
  0xec, 0xd4, 0xd2, 0x09, 0xe7, 0xe3, 0xf9, 0xbc, 0xb8, 0x1b, 0xc9, 0x40,
  0xe1, 0x10, 0x08, 0x17, 0xd4, 0xec, 0xe9, 0xe6, 0xbc, 0x36, 0xc8, 0x22,
  0xd4, 0xf5, 0xc4, 0xc3, 0xcf, 0xfa, 0x31, 0xf6, 0x43, 0x21, 0xfd, 0xae,
  0xe4, 0xf6, 0xfd, 0x03, 0xf5, 0xf9, 0xfe, 0xe0, 0x1f, 0x2e, 0xba, 0xc2,
  0xd9, 0x1b, 0x0a, 0xdd, 0x15, 0x35, 0x08, 0xbc, 0x31, 0xde, 0xaa, 0x00,
  0xd7, 0xc1, 0x18, 0xe6, 0xec, 0xd2, 0xdf, 0xf9, 0x09, 0x0b, 0xeb, 0x14,
  0xe4, 0x23, 0x17, 0xd3, 0x20, 0xf1, 0xdd, 0xe6, 0xff, 0xff, 0x17, 0x09,
  0x13, 0xfe, 0xdb, 0x44, 0x1a, 0x3a, 0xac, 0x4b, 0xff, 0x0a, 0x09, 0xeb,
  0xf4, 0xec, 0xec, 0xdc, 0xa1, 0xf4, 0x10, 0x25, 0xf1, 0x37, 0xdd, 0xe3,
  0x0b, 0xb5, 0x30, 0x20, 0xcf, 0xf2, 0x1e, 0xb6, 0x00, 0xb1, 0xc6, 0xfe,
  0xf8, 0xe0, 0xfa, 0xda, 0xe2, 0xc9, 0x1b, 0x02, 0xfb, 0x04, 0x25, 0x0c,
  0xe3, 0x11, 0x0d, 0x33, 0x31, 0x41, 0x02, 0xea, 0x4c, 0x01, 0xea, 0xe7,
  0xec, 0xe6, 0xf4, 0xe4, 0xff, 0xd7, 0x0d, 0x50, 0x1a, 0x24, 0x07, 0xf7,
  0x1f, 0xc0, 0x27, 0x0d, 0xe0, 0xcf, 0x31, 0x12, 0xd6, 0xe8, 0xf0, 0x24,
  0xf4, 0xfd, 0xbd, 0xf3, 0x09, 0x12, 0xda, 0xc8, 0x25, 0x11, 0x00, 0x08,
  0x2e, 0xff, 0xdc, 0xc8, 0x19, 0x05, 0x24, 0xf3, 0x18, 0xf9, 0x17, 0x13,
  0xec, 0xf5, 0xe9, 0x45, 0xf3, 0x02, 0x0f, 0x00, 0x31, 0xc0, 0x09, 0x19,
  0xaa, 0x14, 0xfb, 0xee, 0xde, 0x16, 0x19, 0xde, 0x2c, 0x08, 0x02, 0x12,
  0x1a, 0x30, 0x27, 0xf8, 0x28, 0x15, 0xf7, 0xd8, 0x38, 0x07, 0x02, 0xfd,
  0xd7, 0x18, 0xeb, 0x2d, 0x41, 0xf2, 0xdb, 0xc1, 0x0f, 0x07, 0xf4, 0xfd,
  0xed, 0x17, 0x21, 0xbc, 0x4f, 0xb5, 0x21, 0x02, 0x1e, 0xf3, 0xed, 0x0c,
  0x1e, 0xe4, 0x04, 0x24, 0xdb, 0xe2, 0xc6, 0x3c, 0x22, 0x17, 0xd9, 0x27,
  0xf8, 0xdc, 0xc3, 0xf1, 0xa4, 0xf6, 0xea, 0x29, 0xec, 0x26, 0x2a, 0xd2,
  0x0c, 0x08, 0xd3, 0xeb, 0x16, 0xcd, 0xca, 0xf3, 0xe5, 0x2e, 0xf6, 0x04,
  0xca, 0x1a, 0xcf, 0x0c, 0xcc, 0xaf, 0x16, 0xcd, 0x23, 0x0a, 0xee, 0xf1,
  0xc7, 0xc1, 0x35, 0x0e, 0x08, 0xfa, 0x25, 0x00, 0x06, 0xd5, 0x09, 0xfd,
  0xd0, 0xad, 0x1d, 0x10, 0xcc, 0xef, 0x1e, 0x02, 0xf7, 0x3a, 0xba, 0x0f,
  0x28, 0xbe, 0xcd, 0xcc, 0xe9, 0x26, 0xfb, 0xf0, 0xcb, 0xeb, 0x4e, 0x1f,
  0xb3, 0xf5, 0xde, 0xd4, 0xf6, 0x07, 0x26, 0x39, 0xc9, 0x20, 0xe8, 0xeb,
  0xae, 0xfb, 0xff, 0xff, 0x04, 0x00, 0x00, 0x00, 0x80, 0x00, 0x00, 0x00,
  0xef, 0xfb, 0xff, 0xff, 0x8e, 0xfd, 0xff, 0xff, 0x8d, 0xfb, 0xff, 0xff,
  0xb5, 0xfd, 0xff, 0xff, 0x13, 0xfe, 0xff, 0xff, 0x2a, 0xfd, 0xff, 0xff,
  0x27, 0xff, 0xff, 0xff, 0xd0, 0xfc, 0xff, 0xff, 0xe1, 0xfe, 0xff, 0xff,
  0x8e, 0x00, 0x00, 0x00, 0x4a, 0xfd, 0xff, 0xff, 0xa6, 0xfe, 0xff, 0xff,
  0xfd, 0xfc, 0xff, 0xff, 0x2c, 0xfe, 0xff, 0xff, 0xd1, 0xfe, 0xff, 0xff,
  0xb6, 0xfc, 0xff, 0xff, 0x52, 0x01, 0x00, 0x00, 0x6e, 0xfc, 0xff, 0xff,
  0x9d, 0xfd, 0xff, 0xff, 0x3a, 0xff, 0xff, 0xff, 0xcc, 0xfd, 0xff, 0xff,
  0x73, 0xfd, 0xff, 0xff, 0xe0, 0xfe, 0xff, 0xff, 0xbb, 0x03, 0x00, 0x00,
  0x77, 0x01, 0x00, 0x00, 0x0d, 0x03, 0x00, 0x00, 0x5f, 0xfc, 0xff, 0xff,
  0x77, 0xfb, 0xff, 0xff, 0x5b, 0xfd, 0xff, 0xff, 0x70, 0xff, 0xff, 0xff,
  0x28, 0xfe, 0xff, 0xff, 0xb0, 0x01, 0x00, 0x00, 0x3a, 0xfc, 0xff, 0xff,
  0x04, 0x00, 0x00, 0x00, 0x80, 0x00, 0x00, 0x00, 0x30, 0x05, 0x00, 0x00,
  0x87, 0x00, 0x00, 0x00, 0x02, 0x01, 0x00, 0x00, 0x6d, 0xff, 0xff, 0xff,
  0x15, 0xfc, 0xff, 0xff, 0x2e, 0xfe, 0xff, 0xff, 0x44, 0x02, 0x00, 0x00,
  0xe0, 0xfc, 0xff, 0xff, 0x34, 0xfd, 0xff, 0xff, 0x65, 0x03, 0x00, 0x00,
  0x2c, 0xff, 0xff, 0xff, 0x91, 0xf9, 0xff, 0xff, 0xc4, 0xfe, 0xff, 0xff,
  0xe6, 0x00, 0x00, 0x00, 0x47, 0x01, 0x00, 0x00, 0x6a, 0x01, 0x00, 0x00,
  0x8e, 0x00, 0x00, 0x00, 0xa2, 0xfe, 0xff, 0xff, 0x37, 0xfc, 0xff, 0xff,
  0xc7, 0xfc, 0xff, 0xff, 0x20, 0xfd, 0xff, 0xff, 0x49, 0xfd, 0xff, 0xff,
  0x76, 0x01, 0x00, 0x00, 0x77, 0xfd, 0xff, 0xff, 0x4d, 0x00, 0x00, 0x00,
  0xbf, 0xfe, 0xff, 0xff, 0x54, 0x07, 0x00, 0x00, 0x61, 0xfe, 0xff, 0xff,
  0x0b, 0xfd, 0xff, 0xff, 0xe0, 0x03, 0x00, 0x00, 0xa8, 0xfb, 0xff, 0xff,
  0x97, 0x02, 0x00, 0x00, 0xc6, 0xfc, 0xff, 0xff, 0x04, 0x00, 0x00, 0x00,
  0x40, 0x00, 0x00, 0x00, 0x66, 0x01, 0x00, 0x00, 0xb2, 0xfc, 0xff, 0xff,
  0x30, 0xff, 0xff, 0xff, 0x3d, 0xff, 0xff, 0xff, 0xcb, 0xfd, 0xff, 0xff,
  0x91, 0xfc, 0xff, 0xff, 0xf6, 0xfb, 0xff, 0xff, 0xb0, 0xfe, 0xff, 0xff,
  0x22, 0xfb, 0xff, 0xff, 0xf9, 0xff, 0xff, 0xff, 0x72, 0xfe, 0xff, 0xff,
  0x4c, 0x03, 0x00, 0x00, 0x82, 0xfd, 0xff, 0xff, 0xc8, 0xfd, 0xff, 0xff,
  0xb9, 0xfe, 0xff, 0xff, 0xd4, 0xfe, 0xff, 0xff, 0x12, 0xfd, 0xff, 0xff,
  0x04, 0x00, 0x00, 0x00, 0x40, 0x00, 0x00, 0x00, 0x12, 0xff, 0xff, 0xff,
  0xe6, 0xfe, 0xff, 0xff, 0x0d, 0xfe, 0xff, 0xff, 0xe6, 0xfe, 0xff, 0xff,
  0x61, 0x01, 0x00, 0x00, 0x26, 0xff, 0xff, 0xff, 0xb0, 0xff, 0xff, 0xff,
  0x3c, 0xfd, 0xff, 0xff, 0xdd, 0x00, 0x00, 0x00, 0x9c, 0x01, 0x00, 0x00,
  0x86, 0xfc, 0xff, 0xff, 0xc1, 0xfe, 0xff, 0xff, 0xb7, 0xfc, 0xff, 0xff,
  0xe1, 0xfc, 0xff, 0xff, 0x9e, 0xfe, 0xff, 0xff, 0x91, 0x00, 0x00, 0x00,
  0x5e, 0xfd, 0xff, 0xff, 0x04, 0x00, 0x00, 0x00, 0x38, 0x00, 0x00, 0x00,
  0xd1, 0x02, 0x00, 0x00, 0xf4, 0xff, 0xff, 0xff, 0xd7, 0xfe, 0xff, 0xff,
  0x98, 0xff, 0xff, 0xff, 0xdc, 0xff, 0xff, 0xff, 0x5c, 0x01, 0x00, 0x00,
  0x8d, 0xff, 0xff, 0xff, 0x08, 0xff, 0xff, 0xff, 0x55, 0xff, 0xff, 0xff,
  0x23, 0x01, 0x00, 0x00, 0x21, 0x00, 0x00, 0x00, 0x23, 0xff, 0xff, 0xff,
  0xb4, 0xff, 0xff, 0xff, 0xab, 0xfe, 0xff, 0xff, 0xa2, 0xfd, 0xff, 0xff,
  0x04, 0x00, 0x00, 0x00, 0x80, 0x00, 0x00, 0x00, 0x82, 0xfe, 0xff, 0xff,
  0xf9, 0xfd, 0xff, 0xff, 0xc6, 0x01, 0x00, 0x00, 0xd6, 0xff, 0xff, 0xff,
  0x9b, 0x02, 0x00, 0x00, 0x29, 0x02, 0x00, 0x00, 0x7f, 0x01, 0x00, 0x00,
  0x13, 0x02, 0x00, 0x00, 0xdb, 0xfe, 0xff, 0xff, 0x57, 0xff, 0xff, 0xff,
  0x68, 0x01, 0x00, 0x00, 0x39, 0x00, 0x00, 0x00, 0x0c, 0x00, 0x00, 0x00,
  0x51, 0x00, 0x00, 0x00, 0xcb, 0xfe, 0xff, 0xff, 0xee, 0xfe, 0xff, 0xff,
  0x14, 0x00, 0x00, 0x00, 0x9b, 0x01, 0x00, 0x00, 0x89, 0xfd, 0xff, 0xff,
  0x26, 0x01, 0x00, 0x00, 0x64, 0xfe, 0xff, 0xff, 0x36, 0x03, 0x00, 0x00,
  0x8e, 0x01, 0x00, 0x00, 0xd0, 0xfe, 0xff, 0xff, 0xf7, 0xfd, 0xff, 0xff,
  0x01, 0xfe, 0xff, 0xff, 0x4c, 0x00, 0x00, 0x00, 0xf8, 0x00, 0x00, 0x00,
  0x11, 0xfe, 0xff, 0xff, 0x62, 0xff, 0xff, 0xff, 0x8e, 0x01, 0x00, 0x00,
  0x09, 0x00, 0x00, 0x00, 0x2e, 0xfe, 0xff, 0xff, 0x04, 0x00, 0x00, 0x00,
  0x80, 0x00, 0x00, 0x00, 0x93, 0xff, 0xff, 0xff, 0xe1, 0xff, 0xff, 0xff,
  0x4b, 0xfe, 0xff, 0xff, 0xcc, 0xfe, 0xff, 0xff, 0xd4, 0xfd, 0xff, 0xff,
  0x7e, 0x01, 0x00, 0x00, 0xd8, 0xfe, 0xff, 0xff, 0xbd, 0x03, 0x00, 0x00,
  0x6c, 0xfe, 0xff, 0xff, 0xe4, 0xfe, 0xff, 0xff, 0xf3, 0xfe, 0xff, 0xff,
  0x8b, 0xfe, 0xff, 0xff, 0xec, 0xff, 0xff, 0xff, 0x7d, 0xfe, 0xff, 0xff,
  0xf1, 0xfe, 0xff, 0xff, 0xe9, 0xfe, 0xff, 0xff, 0x52, 0xff, 0xff, 0xff,
  0x45, 0xff, 0xff, 0xff, 0x3f, 0x01, 0x00, 0x00, 0x85, 0xff, 0xff, 0xff,
  0x02, 0xff, 0xff, 0xff, 0x90, 0xfe, 0xff, 0xff, 0x17, 0xff, 0xff, 0xff,
  0xbc, 0x00, 0x00, 0x00, 0x9f, 0xfd, 0xff, 0xff, 0x52, 0xff, 0xff, 0xff,
  0x6e, 0xfe, 0xff, 0xff, 0x2e, 0xfe, 0xff, 0xff, 0x55, 0xfe, 0xff, 0xff,
  0xcc, 0xfd, 0xff, 0xff, 0xa0, 0x02, 0x00, 0x00, 0xe9, 0x00, 0x00, 0x00,
  0xba, 0xfe, 0xff, 0xff, 0x04, 0x00, 0x00, 0x00, 0x40, 0x00, 0x00, 0x00,
  0xbf, 0xff, 0xff, 0xff, 0xa8, 0xfd, 0xff, 0xff, 0xf9, 0x01, 0x00, 0x00,
  0x77, 0xfe, 0xff, 0xff, 0x3c, 0xfc, 0xff, 0xff, 0xb5, 0xf7, 0xff, 0xff,
  0x5b, 0x01, 0x00, 0x00, 0xe9, 0x00, 0x00, 0x00, 0x6c, 0xfc, 0xff, 0xff,
  0x69, 0xfb, 0xff, 0xff, 0x9a, 0xfe, 0xff, 0xff, 0x35, 0xfd, 0xff, 0xff,
  0xda, 0xfa, 0xff, 0xff, 0xe4, 0x01, 0x00, 0x00, 0x1b, 0xfd, 0xff, 0xff,
  0xfa, 0xfb, 0xff, 0xff, 0x06, 0xff, 0xff, 0xff, 0x04, 0x00, 0x00, 0x00,
  0x08, 0x00, 0x00, 0x00, 0xff, 0xff, 0xff, 0xff, 0x20, 0x00, 0x00, 0x00,
  0x68, 0xbb, 0xff, 0xff, 0x6c, 0xbb, 0xff, 0xff, 0x0f, 0x00, 0x00, 0x00,
  0x4d, 0x4c, 0x49, 0x52, 0x20, 0x43, 0x6f, 0x6e, 0x76, 0x65, 0x72, 0x74,
  0x65, 0x64, 0x2e, 0x00, 0x01, 0x00, 0x00, 0x00, 0x14, 0x00, 0x00, 0x00,
  0x00, 0x00, 0x0e, 0x00, 0x18, 0x00, 0x14, 0x00, 0x10, 0x00, 0x0c, 0x00,
  0x08, 0x00, 0x04, 0x00, 0x0e, 0x00, 0x00, 0x00, 0x14, 0x00, 0x00, 0x00,
  0x1c, 0x00, 0x00, 0x00, 0xf8, 0x05, 0x00, 0x00, 0xfc, 0x05, 0x00, 0x00,
  0x00, 0x06, 0x00, 0x00, 0x04, 0x00, 0x00, 0x00, 0x6d, 0x61, 0x69, 0x6e,
  0x00, 0x00, 0x00, 0x00, 0x1c, 0x00, 0x00, 0x00, 0xbc, 0x05, 0x00, 0x00,
  0x60, 0x05, 0x00, 0x00, 0x2c, 0x05, 0x00, 0x00, 0xdc, 0x04, 0x00, 0x00,
  0xb8, 0x04, 0x00, 0x00, 0x74, 0x04, 0x00, 0x00, 0x50, 0x04, 0x00, 0x00,
  0x10, 0x04, 0x00, 0x00, 0xec, 0x03, 0x00, 0x00, 0xa8, 0x03, 0x00, 0x00,
  0x84, 0x03, 0x00, 0x00, 0x44, 0x03, 0x00, 0x00, 0x20, 0x03, 0x00, 0x00,
  0xdc, 0x02, 0x00, 0x00, 0xb8, 0x02, 0x00, 0x00, 0x78, 0x02, 0x00, 0x00,
  0x54, 0x02, 0x00, 0x00, 0x10, 0x02, 0x00, 0x00, 0xec, 0x01, 0x00, 0x00,
  0xac, 0x01, 0x00, 0x00, 0x88, 0x01, 0x00, 0x00, 0x44, 0x01, 0x00, 0x00,
  0x20, 0x01, 0x00, 0x00, 0xe0, 0x00, 0x00, 0x00, 0xbc, 0x00, 0x00, 0x00,
  0x78, 0x00, 0x00, 0x00, 0x40, 0x00, 0x00, 0x00, 0x04, 0x00, 0x00, 0x00,
  0x1a, 0xfb, 0xff, 0xff, 0x1c, 0x00, 0x00, 0x00, 0x00, 0x00, 0x00, 0x09,
  0x1c, 0x00, 0x00, 0x00, 0x20, 0x00, 0x00, 0x00, 0x04, 0x00, 0x00, 0x00,
  0x00, 0x00, 0x06, 0x00, 0x08, 0x00, 0x04, 0x00, 0x06, 0x00, 0x00, 0x00,
  0x00, 0x00, 0x80, 0x3f, 0x01, 0x00, 0x00, 0x00, 0x39, 0x00, 0x00, 0x00,
  0x01, 0x00, 0x00, 0x00, 0x38, 0x00, 0x00, 0x00, 0x52, 0xfb, 0xff, 0xff,
  0x14, 0x00, 0x00, 0x00, 0x00, 0x00, 0x00, 0x08, 0x10, 0x00, 0x00, 0x00,
  0x14, 0x00, 0x00, 0x00, 0x03, 0x00, 0x00, 0x00, 0x84, 0xbc, 0xff, 0xff,
  0x01, 0x00, 0x00, 0x00, 0x38, 0x00, 0x00, 0x00, 0x03, 0x00, 0x00, 0x00,
  0x37, 0x00, 0x00, 0x00, 0x0b, 0x00, 0x00, 0x00, 0x05, 0x00, 0x00, 0x00,
  0x86, 0xfb, 0xff, 0xff, 0x1c, 0x00, 0x00, 0x00, 0x00, 0x00, 0x00, 0x08,
  0x1c, 0x00, 0x00, 0x00, 0x20, 0x00, 0x00, 0x00, 0x03, 0x00, 0x00, 0x00,
  0x00, 0x00, 0x06, 0x00, 0x08, 0x00, 0x07, 0x00, 0x06, 0x00, 0x00, 0x00,
  0x00, 0x00, 0x00, 0x01, 0x01, 0x00, 0x00, 0x00, 0x37, 0x00, 0x00, 0x00,
  0x03, 0x00, 0x00, 0x00, 0x36, 0x00, 0x00, 0x00, 0x0a, 0x00, 0x00, 0x00,
  0x04, 0x00, 0x00, 0x00, 0x6a, 0xfb, 0xff, 0xff, 0x08, 0x00, 0x00, 0x00,
  0x0c, 0x00, 0x00, 0x00, 0x01, 0x00, 0x00, 0x00, 0x36, 0x00, 0x00, 0x00,
  0x02, 0x00, 0x00, 0x00, 0x35, 0x00, 0x00, 0x00, 0x01, 0x00, 0x00, 0x00,
  0xe6, 0xfb, 0xff, 0xff, 0x14, 0x00, 0x00, 0x00, 0x00, 0x00, 0x00, 0x05,
  0x20, 0x00, 0x00, 0x00, 0x24, 0x00, 0x00, 0x00, 0x02, 0x00, 0x00, 0x00,
  0x52, 0xfc, 0xff, 0xff, 0x02, 0x00, 0x00, 0x00, 0x01, 0x00, 0x00, 0x00,
  0x02, 0x00, 0x00, 0x00, 0x01, 0x00, 0x00, 0x00, 0x01, 0x00, 0x00, 0x00,
  0x35, 0x00, 0x00, 0x00, 0x01, 0x00, 0x00, 0x00, 0x34, 0x00, 0x00, 0x00,
  0xc6, 0xfb, 0xff, 0xff, 0x08, 0x00, 0x00, 0x00, 0x0c, 0x00, 0x00, 0x00,
  0x01, 0x00, 0x00, 0x00, 0x34, 0x00, 0x00, 0x00, 0x02, 0x00, 0x00, 0x00,
  0x33, 0x00, 0x00, 0x00, 0x1d, 0x00, 0x00, 0x00, 0x42, 0xfc, 0xff, 0xff,
  0x14, 0x00, 0x00, 0x00, 0x00, 0x00, 0x00, 0x01, 0x1c, 0x00, 0x00, 0x00,
  0x20, 0x00, 0x00, 0x00, 0x01, 0x00, 0x00, 0x00, 0x34, 0xfc, 0xff, 0xff,
  0x00, 0x00, 0x00, 0x01, 0x01, 0x00, 0x00, 0x00, 0x01, 0x00, 0x00, 0x00,
  0x01, 0x00, 0x00, 0x00, 0x33, 0x00, 0x00, 0x00, 0x03, 0x00, 0x00, 0x00,
  0x32, 0x00, 0x00, 0x00, 0x11, 0x00, 0x00, 0x00, 0x03, 0x00, 0x00, 0x00,
  0x26, 0xfc, 0xff, 0xff, 0x08, 0x00, 0x00, 0x00, 0x0c, 0x00, 0x00, 0x00,
  0x01, 0x00, 0x00, 0x00, 0x32, 0x00, 0x00, 0x00, 0x02, 0x00, 0x00, 0x00,
  0x31, 0x00, 0x00, 0x00, 0x1c, 0x00, 0x00, 0x00, 0xa2, 0xfc, 0xff, 0xff,
  0x14, 0x00, 0x00, 0x00, 0x00, 0x00, 0x00, 0x05, 0x20, 0x00, 0x00, 0x00,
  0x24, 0x00, 0x00, 0x00, 0x02, 0x00, 0x00, 0x00, 0x0e, 0xfd, 0xff, 0xff,
  0x02, 0x00, 0x00, 0x00, 0x01, 0x00, 0x00, 0x00, 0x02, 0x00, 0x00, 0x00,
  0x01, 0x00, 0x00, 0x00, 0x01, 0x00, 0x00, 0x00, 0x31, 0x00, 0x00, 0x00,
  0x01, 0x00, 0x00, 0x00, 0x30, 0x00, 0x00, 0x00, 0x82, 0xfc, 0xff, 0xff,
  0x08, 0x00, 0x00, 0x00, 0x0c, 0x00, 0x00, 0x00, 0x01, 0x00, 0x00, 0x00,
  0x30, 0x00, 0x00, 0x00, 0x02, 0x00, 0x00, 0x00, 0x2f, 0x00, 0x00, 0x00,
  0x1b, 0x00, 0x00, 0x00, 0xfe, 0xfc, 0xff, 0xff, 0x14, 0x00, 0x00, 0x00,
  0x00, 0x00, 0x00, 0x01, 0x1c, 0x00, 0x00, 0x00, 0x20, 0x00, 0x00, 0x00,
  0x01, 0x00, 0x00, 0x00, 0xf0, 0xfc, 0xff, 0xff, 0x00, 0x00, 0x00, 0x01,
  0x01, 0x00, 0x00, 0x00, 0x01, 0x00, 0x00, 0x00, 0x01, 0x00, 0x00, 0x00,
  0x2f, 0x00, 0x00, 0x00, 0x03, 0x00, 0x00, 0x00, 0x2e, 0x00, 0x00, 0x00,
  0x10, 0x00, 0x00, 0x00, 0x09, 0x00, 0x00, 0x00, 0xe2, 0xfc, 0xff, 0xff,
  0x08, 0x00, 0x00, 0x00, 0x0c, 0x00, 0x00, 0x00, 0x01, 0x00, 0x00, 0x00,
  0x2e, 0x00, 0x00, 0x00, 0x02, 0x00, 0x00, 0x00, 0x2d, 0x00, 0x00, 0x00,
  0x1a, 0x00, 0x00, 0x00, 0x5e, 0xfd, 0xff, 0xff, 0x14, 0x00, 0x00, 0x00,
  0x00, 0x00, 0x00, 0x05, 0x20, 0x00, 0x00, 0x00, 0x24, 0x00, 0x00, 0x00,
  0x02, 0x00, 0x00, 0x00, 0xca, 0xfd, 0xff, 0xff, 0x02, 0x00, 0x00, 0x00,
  0x01, 0x00, 0x00, 0x00, 0x02, 0x00, 0x00, 0x00, 0x01, 0x00, 0x00, 0x00,
  0x01, 0x00, 0x00, 0x00, 0x2d, 0x00, 0x00, 0x00, 0x01, 0x00, 0x00, 0x00,
  0x2c, 0x00, 0x00, 0x00, 0x3e, 0xfd, 0xff, 0xff, 0x08, 0x00, 0x00, 0x00,
  0x0c, 0x00, 0x00, 0x00, 0x01, 0x00, 0x00, 0x00, 0x2c, 0x00, 0x00, 0x00,
  0x02, 0x00, 0x00, 0x00, 0x2b, 0x00, 0x00, 0x00, 0x19, 0x00, 0x00, 0x00,
  0xba, 0xfd, 0xff, 0xff, 0x14, 0x00, 0x00, 0x00, 0x00, 0x00, 0x00, 0x01,
  0x1c, 0x00, 0x00, 0x00, 0x20, 0x00, 0x00, 0x00, 0x01, 0x00, 0x00, 0x00,
  0xac, 0xfd, 0xff, 0xff, 0x00, 0x00, 0x00, 0x01, 0x01, 0x00, 0x00, 0x00,
  0x01, 0x00, 0x00, 0x00, 0x01, 0x00, 0x00, 0x00, 0x2b, 0x00, 0x00, 0x00,
  0x03, 0x00, 0x00, 0x00, 0x2a, 0x00, 0x00, 0x00, 0x0f, 0x00, 0x00, 0x00,
  0x08, 0x00, 0x00, 0x00, 0x9e, 0xfd, 0xff, 0xff, 0x08, 0x00, 0x00, 0x00,
  0x0c, 0x00, 0x00, 0x00, 0x01, 0x00, 0x00, 0x00, 0x2a, 0x00, 0x00, 0x00,
  0x02, 0x00, 0x00, 0x00, 0x29, 0x00, 0x00, 0x00, 0x18, 0x00, 0x00, 0x00,
  0x1a, 0xfe, 0xff, 0xff, 0x14, 0x00, 0x00, 0x00, 0x00, 0x00, 0x00, 0x05,
  0x20, 0x00, 0x00, 0x00, 0x24, 0x00, 0x00, 0x00, 0x02, 0x00, 0x00, 0x00,
  0x86, 0xfe, 0xff, 0xff, 0x02, 0x00, 0x00, 0x00, 0x01, 0x00, 0x00, 0x00,
  0x02, 0x00, 0x00, 0x00, 0x01, 0x00, 0x00, 0x00, 0x01, 0x00, 0x00, 0x00,
  0x29, 0x00, 0x00, 0x00, 0x01, 0x00, 0x00, 0x00, 0x28, 0x00, 0x00, 0x00,
  0xfa, 0xfd, 0xff, 0xff, 0x08, 0x00, 0x00, 0x00, 0x0c, 0x00, 0x00, 0x00,
  0x01, 0x00, 0x00, 0x00, 0x28, 0x00, 0x00, 0x00, 0x02, 0x00, 0x00, 0x00,
  0x27, 0x00, 0x00, 0x00, 0x17, 0x00, 0x00, 0x00, 0x76, 0xfe, 0xff, 0xff,
  0x14, 0x00, 0x00, 0x00, 0x00, 0x00, 0x00, 0x01, 0x1c, 0x00, 0x00, 0x00,
  0x20, 0x00, 0x00, 0x00, 0x01, 0x00, 0x00, 0x00, 0x68, 0xfe, 0xff, 0xff,
  0x00, 0x00, 0x00, 0x01, 0x01, 0x00, 0x00, 0x00, 0x01, 0x00, 0x00, 0x00,
  0x01, 0x00, 0x00, 0x00, 0x27, 0x00, 0x00, 0x00, 0x03, 0x00, 0x00, 0x00,
  0x26, 0x00, 0x00, 0x00, 0x0e, 0x00, 0x00, 0x00, 0x07, 0x00, 0x00, 0x00,
  0x5a, 0xfe, 0xff, 0xff, 0x08, 0x00, 0x00, 0x00, 0x0c, 0x00, 0x00, 0x00,
  0x01, 0x00, 0x00, 0x00, 0x26, 0x00, 0x00, 0x00, 0x02, 0x00, 0x00, 0x00,
  0x25, 0x00, 0x00, 0x00, 0x16, 0x00, 0x00, 0x00, 0xd6, 0xfe, 0xff, 0xff,
  0x14, 0x00, 0x00, 0x00, 0x00, 0x00, 0x00, 0x05, 0x20, 0x00, 0x00, 0x00,
  0x24, 0x00, 0x00, 0x00, 0x02, 0x00, 0x00, 0x00, 0x42, 0xff, 0xff, 0xff,
  0x02, 0x00, 0x00, 0x00, 0x01, 0x00, 0x00, 0x00, 0x02, 0x00, 0x00, 0x00,
  0x01, 0x00, 0x00, 0x00, 0x01, 0x00, 0x00, 0x00, 0x25, 0x00, 0x00, 0x00,
  0x01, 0x00, 0x00, 0x00, 0x24, 0x00, 0x00, 0x00, 0xb6, 0xfe, 0xff, 0xff,
  0x08, 0x00, 0x00, 0x00, 0x0c, 0x00, 0x00, 0x00, 0x01, 0x00, 0x00, 0x00,
  0x24, 0x00, 0x00, 0x00, 0x02, 0x00, 0x00, 0x00, 0x23, 0x00, 0x00, 0x00,
  0x15, 0x00, 0x00, 0x00, 0x32, 0xff, 0xff, 0xff, 0x14, 0x00, 0x00, 0x00,
  0x00, 0x00, 0x00, 0x01, 0x1c, 0x00, 0x00, 0x00, 0x20, 0x00, 0x00, 0x00,
  0x01, 0x00, 0x00, 0x00, 0x24, 0xff, 0xff, 0xff, 0x00, 0x00, 0x00, 0x01,
  0x01, 0x00, 0x00, 0x00, 0x01, 0x00, 0x00, 0x00, 0x01, 0x00, 0x00, 0x00,
  0x23, 0x00, 0x00, 0x00, 0x03, 0x00, 0x00, 0x00, 0x22, 0x00, 0x00, 0x00,
  0x0d, 0x00, 0x00, 0x00, 0x06, 0x00, 0x00, 0x00, 0x16, 0xff, 0xff, 0xff,
  0x08, 0x00, 0x00, 0x00, 0x0c, 0x00, 0x00, 0x00, 0x01, 0x00, 0x00, 0x00,
  0x22, 0x00, 0x00, 0x00, 0x02, 0x00, 0x00, 0x00, 0x21, 0x00, 0x00, 0x00,
  0x14, 0x00, 0x00, 0x00, 0x92, 0xff, 0xff, 0xff, 0x24, 0x00, 0x00, 0x00,
  0x00, 0x00, 0x00, 0x05, 0x30, 0x00, 0x00, 0x00, 0x34, 0x00, 0x00, 0x00,
  0x02, 0x00, 0x00, 0x00, 0x00, 0x00, 0x0e, 0x00, 0x14, 0x00, 0x00, 0x00,
  0x10, 0x00, 0x0c, 0x00, 0x08, 0x00, 0x04, 0x00, 0x0e, 0x00, 0x00, 0x00,
  0x02, 0x00, 0x00, 0x00, 0x01, 0x00, 0x00, 0x00, 0x02, 0x00, 0x00, 0x00,
  0x01, 0x00, 0x00, 0x00, 0x01, 0x00, 0x00, 0x00, 0x21, 0x00, 0x00, 0x00,
  0x01, 0x00, 0x00, 0x00, 0x20, 0x00, 0x00, 0x00, 0x82, 0xff, 0xff, 0xff,
  0x08, 0x00, 0x00, 0x00, 0x0c, 0x00, 0x00, 0x00, 0x01, 0x00, 0x00, 0x00,
  0x20, 0x00, 0x00, 0x00, 0x02, 0x00, 0x00, 0x00, 0x1f, 0x00, 0x00, 0x00,
  0x13, 0x00, 0x00, 0x00, 0x00, 0x00, 0x0e, 0x00, 0x18, 0x00, 0x14, 0x00,
  0x10, 0x00, 0x0c, 0x00, 0x0b, 0x00, 0x04, 0x00, 0x0e, 0x00, 0x00, 0x00,
  0x20, 0x00, 0x00, 0x00, 0x00, 0x00, 0x00, 0x01, 0x28, 0x00, 0x00, 0x00,
  0x2c, 0x00, 0x00, 0x00, 0x01, 0x00, 0x00, 0x00, 0x0c, 0x00, 0x10, 0x00,
  0x00, 0x00, 0x0c, 0x00, 0x08, 0x00, 0x07, 0x00, 0x0c, 0x00, 0x00, 0x00,
  0x00, 0x00, 0x00, 0x01, 0x01, 0x00, 0x00, 0x00, 0x01, 0x00, 0x00, 0x00,
  0x01, 0x00, 0x00, 0x00, 0x1f, 0x00, 0x00, 0x00, 0x03, 0x00, 0x00, 0x00,
  0x1e, 0x00, 0x00, 0x00, 0x0c, 0x00, 0x00, 0x00, 0x02, 0x00, 0x00, 0x00,
  0x00, 0x00, 0x0a, 0x00, 0x0c, 0x00, 0x00, 0x00, 0x08, 0x00, 0x04, 0x00,
  0x0a, 0x00, 0x00, 0x00, 0x08, 0x00, 0x00, 0x00, 0x0c, 0x00, 0x00, 0x00,
  0x01, 0x00, 0x00, 0x00, 0x1e, 0x00, 0x00, 0x00, 0x02, 0x00, 0x00, 0x00,
  0x00, 0x00, 0x00, 0x00, 0x12, 0x00, 0x00, 0x00, 0x01, 0x00, 0x00, 0x00,
  0x39, 0x00, 0x00, 0x00, 0x01, 0x00, 0x00, 0x00, 0x00, 0x00, 0x00, 0x00,
  0x3a, 0x00, 0x00, 0x00, 0xbc, 0x3e, 0x00, 0x00, 0x30, 0x3e, 0x00, 0x00,
  0x1c, 0x3d, 0x00, 0x00, 0x54, 0x3b, 0x00, 0x00, 0x00, 0x3b, 0x00, 0x00,
  0xac, 0x3a, 0x00, 0x00, 0xa0, 0x39, 0x00, 0x00, 0x94, 0x38, 0x00, 0x00,
  0xc8, 0x36, 0x00, 0x00, 0xfc, 0x34, 0x00, 0x00, 0x50, 0x34, 0x00, 0x00,
  0x9c, 0x33, 0x00, 0x00, 0xb8, 0x31, 0x00, 0x00, 0xcc, 0x2f, 0x00, 0x00,
  0xe0, 0x2d, 0x00, 0x00, 0xb4, 0x2a, 0x00, 0x00, 0x88, 0x27, 0x00, 0x00,
  0x5c, 0x24, 0x00, 0x00, 0xd0, 0x23, 0x00, 0x00, 0x44, 0x23, 0x00, 0x00,
  0xb4, 0x22, 0x00, 0x00, 0x24, 0x22, 0x00, 0x00, 0x94, 0x21, 0x00, 0x00,
  0x04, 0x21, 0x00, 0x00, 0x74, 0x20, 0x00, 0x00, 0xe4, 0x1f, 0x00, 0x00,
  0x54, 0x1f, 0x00, 0x00, 0xc4, 0x1e, 0x00, 0x00, 0x34, 0x1e, 0x00, 0x00,
  0xa4, 0x1d, 0x00, 0x00, 0xd0, 0x1c, 0x00, 0x00, 0xd4, 0x1a, 0x00, 0x00,
  0x00, 0x1a, 0x00, 0x00, 0x34, 0x19, 0x00, 0x00, 0x60, 0x18, 0x00, 0x00,
  0x54, 0x16, 0x00, 0x00, 0x80, 0x15, 0x00, 0x00, 0xb4, 0x14, 0x00, 0x00,
  0xe0, 0x13, 0x00, 0x00, 0x24, 0x12, 0x00, 0x00, 0x50, 0x11, 0x00, 0x00,
  0x84, 0x10, 0x00, 0x00, 0xb0, 0x0f, 0x00, 0x00, 0xa4, 0x0d, 0x00, 0x00,
  0xd0, 0x0c, 0x00, 0x00, 0x04, 0x0c, 0x00, 0x00, 0x30, 0x0b, 0x00, 0x00,
  0x24, 0x09, 0x00, 0x00, 0x50, 0x08, 0x00, 0x00, 0x84, 0x07, 0x00, 0x00,
  0xb0, 0x06, 0x00, 0x00, 0xec, 0x04, 0x00, 0x00, 0x18, 0x04, 0x00, 0x00,
  0x4c, 0x03, 0x00, 0x00, 0x98, 0x02, 0x00, 0x00, 0x5c, 0x01, 0x00, 0x00,
  0x60, 0x00, 0x00, 0x00, 0x04, 0x00, 0x00, 0x00, 0x3a, 0xc2, 0xff, 0xff,
  0x14, 0x00, 0x00, 0x00, 0x30, 0x00, 0x00, 0x00, 0x3a, 0x00, 0x00, 0x00,
  0x00, 0x00, 0x00, 0x09, 0x38, 0x00, 0x00, 0x00, 0xc4, 0xc3, 0xff, 0xff,
  0x08, 0x00, 0x00, 0x00, 0x10, 0x00, 0x00, 0x00, 0x01, 0x00, 0x00, 0x00,
  0x80, 0xff, 0xff, 0xff, 0xff, 0xff, 0xff, 0xff, 0x01, 0x00, 0x00, 0x00,
  0x00, 0x00, 0x80, 0x3b, 0x0d, 0x00, 0x00, 0x00, 0x49, 0x64, 0x65, 0x6e,
  0x74, 0x69, 0x74, 0x79, 0x5f, 0x69, 0x6e, 0x74, 0x38, 0x00, 0x00, 0x00,
  0x02, 0x00, 0x00, 0x00, 0x01, 0x00, 0x00, 0x00, 0x0e, 0x00, 0x00, 0x00,
  0x92, 0xc2, 0xff, 0xff, 0x14, 0x00, 0x00, 0x00, 0x48, 0x00, 0x00, 0x00,
  0x39, 0x00, 0x00, 0x00, 0x00, 0x00, 0x00, 0x09, 0xd8, 0x00, 0x00, 0x00,
  0x84, 0xc2, 0xff, 0xff, 0x10, 0x00, 0x00, 0x00, 0x18, 0x00, 0x00, 0x00,
  0x1c, 0x00, 0x00, 0x00, 0x20, 0x00, 0x00, 0x00, 0x01, 0x00, 0x00, 0x00,
  0x10, 0x00, 0x00, 0x00, 0x00, 0x00, 0x00, 0x00, 0x01, 0x00, 0x00, 0x00,
  0x83, 0x1e, 0xfc, 0x3e, 0x01, 0x00, 0x00, 0x00, 0xe2, 0x0b, 0x5a, 0x42,
  0x01, 0x00, 0x00, 0x00, 0x73, 0x1c, 0x8e, 0xc2, 0x95, 0x00, 0x00, 0x00,
  0x73, 0x65, 0x71, 0x75, 0x65, 0x6e, 0x74, 0x69, 0x61, 0x6c, 0x2f, 0x79,
  0x5f, 0x70, 0x72, 0x65, 0x64, 0x2f, 0x4d, 0x61, 0x74, 0x4d, 0x75, 0x6c,
  0x3b, 0x53, 0x74, 0x61, 0x74, 0x65, 0x66, 0x75, 0x6c, 0x50, 0x61, 0x72,
  0x74, 0x69, 0x74, 0x69, 0x6f, 0x6e, 0x65, 0x64, 0x43, 0x61, 0x6c, 0x6c,
  0x2f, 0x73, 0x65, 0x71, 0x75, 0x65, 0x6e, 0x74, 0x69, 0x61, 0x6c, 0x2f,
  0x79, 0x5f, 0x70, 0x72, 0x65, 0x64, 0x2f, 0x4d, 0x61, 0x74, 0x4d, 0x75,
  0x6c, 0x3b, 0x73, 0x65, 0x71, 0x75, 0x65, 0x6e, 0x74, 0x69, 0x61, 0x6c,
  0x2f, 0x79, 0x5f, 0x70, 0x72, 0x65, 0x64, 0x2f, 0x42, 0x69, 0x61, 0x73,
  0x41, 0x64, 0x64, 0x3b, 0x53, 0x74, 0x61, 0x74, 0x65, 0x66, 0x75, 0x6c,
  0x50, 0x61, 0x72, 0x74, 0x69, 0x74, 0x69, 0x6f, 0x6e, 0x65, 0x64, 0x43,
  0x61, 0x6c, 0x6c, 0x2f, 0x73, 0x65, 0x71, 0x75, 0x65, 0x6e, 0x74, 0x69,
  0x61, 0x6c, 0x2f, 0x79, 0x5f, 0x70, 0x72, 0x65, 0x64, 0x2f, 0x42, 0x69,
  0x61, 0x73, 0x41, 0x64, 0x64, 0x00, 0x00, 0x00, 0x02, 0x00, 0x00, 0x00,
  0x01, 0x00, 0x00, 0x00, 0x0e, 0x00, 0x00, 0x00, 0x8a, 0xc3, 0xff, 0xff,
  0x14, 0x00, 0x00, 0x00, 0x48, 0x00, 0x00, 0x00, 0x38, 0x00, 0x00, 0x00,
  0x00, 0x00, 0x00, 0x09, 0x18, 0x01, 0x00, 0x00, 0x7c, 0xc3, 0xff, 0xff,
  0x10, 0x00, 0x00, 0x00, 0x18, 0x00, 0x00, 0x00, 0x1c, 0x00, 0x00, 0x00,
  0x20, 0x00, 0x00, 0x00, 0x01, 0x00, 0x00, 0x00, 0x80, 0xff, 0xff, 0xff,
  0xff, 0xff, 0xff, 0xff, 0x01, 0x00, 0x00, 0x00, 0x31, 0x98, 0x00, 0x3e,
  0x01, 0x00, 0x00, 0x00, 0x99, 0x17, 0x00, 0x42, 0x01, 0x00, 0x00, 0x00,
  0x00, 0x00, 0x00, 0x00, 0xd5, 0x00, 0x00, 0x00, 0x73, 0x65, 0x71, 0x75,
  0x65, 0x6e, 0x74, 0x69, 0x61, 0x6c, 0x2f, 0x64, 0x65, 0x6e, 0x73, 0x65,
  0x2f, 0x4d, 0x61, 0x74, 0x4d, 0x75, 0x6c, 0x3b, 0x53, 0x74, 0x61, 0x74,
  0x65, 0x66, 0x75, 0x6c, 0x50, 0x61, 0x72, 0x74, 0x69, 0x74, 0x69, 0x6f,
  0x6e, 0x65, 0x64, 0x43, 0x61, 0x6c, 0x6c, 0x2f, 0x73, 0x65, 0x71, 0x75,
  0x65, 0x6e, 0x74, 0x69, 0x61, 0x6c, 0x2f, 0x64, 0x65, 0x6e, 0x73, 0x65,
  0x2f, 0x4d, 0x61, 0x74, 0x4d, 0x75, 0x6c, 0x3b, 0x73, 0x65, 0x71, 0x75,
  0x65, 0x6e, 0x74, 0x69, 0x61, 0x6c, 0x2f, 0x64, 0x65, 0x6e, 0x73, 0x65,
  0x2f, 0x52, 0x65, 0x6c, 0x75, 0x3b, 0x53, 0x74, 0x61, 0x74, 0x65, 0x66,
  0x75, 0x6c, 0x50, 0x61, 0x72, 0x74, 0x69, 0x74, 0x69, 0x6f, 0x6e, 0x65,
  0x64, 0x43, 0x61, 0x6c, 0x6c, 0x2f, 0x73, 0x65, 0x71, 0x75, 0x65, 0x6e,
  0x74, 0x69, 0x61, 0x6c, 0x2f, 0x64, 0x65, 0x6e, 0x73, 0x65, 0x2f, 0x52,
  0x65, 0x6c, 0x75, 0x3b, 0x73, 0x65, 0x71, 0x75, 0x65, 0x6e, 0x74, 0x69,
  0x61, 0x6c, 0x2f, 0x64, 0x65, 0x6e, 0x73, 0x65, 0x2f, 0x42, 0x69, 0x61,
  0x73, 0x41, 0x64, 0x64, 0x3b, 0x53, 0x74, 0x61, 0x74, 0x65, 0x66, 0x75,
  0x6c, 0x50, 0x61, 0x72, 0x74, 0x69, 0x74, 0x69, 0x6f, 0x6e, 0x65, 0x64,
  0x43, 0x61, 0x6c, 0x6c, 0x2f, 0x73, 0x65, 0x71, 0x75, 0x65, 0x6e, 0x74,
  0x69, 0x61, 0x6c, 0x2f, 0x64, 0x65, 0x6e, 0x73, 0x65, 0x2f, 0x42, 0x69,
  0x61, 0x73, 0x41, 0x64, 0x64, 0x00, 0x00, 0x00, 0x02, 0x00, 0x00, 0x00,
  0x01, 0x00, 0x00, 0x00, 0x20, 0x00, 0x00, 0x00, 0xc2, 0xc4, 0xff, 0xff,
  0x14, 0x00, 0x00, 0x00, 0x48, 0x00, 0x00, 0x00, 0x37, 0x00, 0x00, 0x00,
  0x00, 0x00, 0x00, 0x09, 0x90, 0x00, 0x00, 0x00, 0xb4, 0xc4, 0xff, 0xff,
  0x10, 0x00, 0x00, 0x00, 0x18, 0x00, 0x00, 0x00, 0x1c, 0x00, 0x00, 0x00,
  0x20, 0x00, 0x00, 0x00, 0x01, 0x00, 0x00, 0x00, 0x80, 0xff, 0xff, 0xff,
  0xff, 0xff, 0xff, 0xff, 0x01, 0x00, 0x00, 0x00, 0x16, 0x0c, 0x0c, 0x3e,
  0x01, 0x00, 0x00, 0x00, 0x0a, 0x80, 0x0b, 0x42, 0x01, 0x00, 0x00, 0x00,
  0x00, 0x00, 0x00, 0x00, 0x4d, 0x00, 0x00, 0x00, 0x73, 0x65, 0x71, 0x75,
  0x65, 0x6e, 0x74, 0x69, 0x61, 0x6c, 0x2f, 0x66, 0x6c, 0x61, 0x74, 0x74,
  0x65, 0x6e, 0x2f, 0x52, 0x65, 0x73, 0x68, 0x61, 0x70, 0x65, 0x3b, 0x53,
  0x74, 0x61, 0x74, 0x65, 0x66, 0x75, 0x6c, 0x50, 0x61, 0x72, 0x74, 0x69,
  0x74, 0x69, 0x6f, 0x6e, 0x65, 0x64, 0x43, 0x61, 0x6c, 0x6c, 0x2f, 0x73,
  0x65, 0x71, 0x75, 0x65, 0x6e, 0x74, 0x69, 0x61, 0x6c, 0x2f, 0x66, 0x6c,
  0x61, 0x74, 0x74, 0x65, 0x6e, 0x2f, 0x52, 0x65, 0x73, 0x68, 0x61, 0x70,
  0x65, 0x00, 0x00, 0x00, 0x02, 0x00, 0x00, 0x00, 0x01, 0x00, 0x00, 0x00,
  0x20, 0x00, 0x00, 0x00, 0x72, 0xc5, 0xff, 0xff, 0x14, 0x00, 0x00, 0x00,
  0x48, 0x00, 0x00, 0x00, 0x36, 0x00, 0x00, 0x00, 0x00, 0x00, 0x00, 0x09,
  0xa0, 0x00, 0x00, 0x00, 0x64, 0xc5, 0xff, 0xff, 0x10, 0x00, 0x00, 0x00,
  0x18, 0x00, 0x00, 0x00, 0x1c, 0x00, 0x00, 0x00, 0x20, 0x00, 0x00, 0x00,
  0x01, 0x00, 0x00, 0x00, 0x80, 0xff, 0xff, 0xff, 0xff, 0xff, 0xff, 0xff,
  0x01, 0x00, 0x00, 0x00, 0x16, 0x0c, 0x0c, 0x3e, 0x01, 0x00, 0x00, 0x00,
  0x0a, 0x80, 0x0b, 0x42, 0x01, 0x00, 0x00, 0x00, 0x00, 0x00, 0x00, 0x00,
  0x5d, 0x00, 0x00, 0x00, 0x73, 0x65, 0x71, 0x75, 0x65, 0x6e, 0x74, 0x69,
  0x61, 0x6c, 0x2f, 0x6d, 0x61, 0x78, 0x5f, 0x70, 0x6f, 0x6f, 0x6c, 0x69,
  0x6e, 0x67, 0x31, 0x64, 0x5f, 0x35, 0x2f, 0x4d, 0x61, 0x78, 0x50, 0x6f,
  0x6f, 0x6c, 0x3b, 0x53, 0x74, 0x61, 0x74, 0x65, 0x66, 0x75, 0x6c, 0x50,
  0x61, 0x72, 0x74, 0x69, 0x74, 0x69, 0x6f, 0x6e, 0x65, 0x64, 0x43, 0x61,
  0x6c, 0x6c, 0x2f, 0x73, 0x65, 0x71, 0x75, 0x65, 0x6e, 0x74, 0x69, 0x61,
  0x6c, 0x2f, 0x6d, 0x61, 0x78, 0x5f, 0x70, 0x6f, 0x6f, 0x6c, 0x69, 0x6e,
  0x67, 0x31, 0x64, 0x5f, 0x35, 0x2f, 0x4d, 0x61, 0x78, 0x50, 0x6f, 0x6f,
  0x6c, 0x00, 0x00, 0x00, 0x04, 0x00, 0x00, 0x00, 0x01, 0x00, 0x00, 0x00,
  0x01, 0x00, 0x00, 0x00, 0x01, 0x00, 0x00, 0x00, 0x20, 0x00, 0x00, 0x00,
  0x3a, 0xc6, 0xff, 0xff, 0x14, 0x00, 0x00, 0x00, 0x48, 0x00, 0x00, 0x00,
  0x35, 0x00, 0x00, 0x00, 0x00, 0x00, 0x00, 0x09, 0xa8, 0x00, 0x00, 0x00,
  0x2c, 0xc6, 0xff, 0xff, 0x10, 0x00, 0x00, 0x00, 0x18, 0x00, 0x00, 0x00,
  0x1c, 0x00, 0x00, 0x00, 0x20, 0x00, 0x00, 0x00, 0x01, 0x00, 0x00, 0x00,
  0x80, 0xff, 0xff, 0xff, 0xff, 0xff, 0xff, 0xff, 0x01, 0x00, 0x00, 0x00,
  0x16, 0x0c, 0x0c, 0x3e, 0x01, 0x00, 0x00, 0x00, 0x0a, 0x80, 0x0b, 0x42,
  0x01, 0x00, 0x00, 0x00, 0x00, 0x00, 0x00, 0x00, 0x64, 0x00, 0x00, 0x00,
  0x73, 0x65, 0x71, 0x75, 0x65, 0x6e, 0x74, 0x69, 0x61, 0x6c, 0x2f, 0x6d,
  0x61, 0x78, 0x5f, 0x70, 0x6f, 0x6f, 0x6c, 0x69, 0x6e, 0x67, 0x31, 0x64,
  0x5f, 0x35, 0x2f, 0x45, 0x78, 0x70, 0x61, 0x6e, 0x64, 0x44, 0x69, 0x6d,
